<pad>	0
<unk>	0
<bos>	0
<eos>	0
<user>	0
<assistant>	0
<0x00>	0
<0x01>	0
<0x02>	0
<0x03>	0
<0x04>	0
<0x05>	0
<0x06>	0
<0x07>	0
<0x08>	0
<0x09>	0
<0x0A>	0
<0x0B>	0
<0x0C>	0
<0x0D>	0
<0x0E>	0
<0x0F>	0
<0x10>	0
<0x11>	0
<0x12>	0
<0x13>	0
<0x14>	0
<0x15>	0
<0x16>	0
<0x17>	0
<0x18>	0
<0x19>	0
<0x1A>	0
<0x1B>	0
<0x1C>	0
<0x1D>	0
<0x1E>	0
<0x1F>	0
<0x20>	0
<0x21>	0
<0x22>	0
<0x23>	0
<0x24>	0
<0x25>	0
<0x26>	0
<0x27>	0
<0x28>	0
<0x29>	0
<0x2A>	0
<0x2B>	0
<0x2C>	0
<0x2D>	0
<0x2E>	0
<0x2F>	0
<0x30>	0
<0x31>	0
<0x32>	0
<0x33>	0
<0x34>	0
<0x35>	0
<0x36>	0
<0x37>	0
<0x38>	0
<0x39>	0
<0x3A>	0
<0x3B>	0
<0x3C>	0
<0x3D>	0
<0x3E>	0
<0x3F>	0
<0x40>	0
<0x41>	0
<0x42>	0
<0x43>	0
<0x44>	0
<0x45>	0
<0x46>	0
<0x47>	0
<0x48>	0
<0x49>	0
<0x4A>	0
<0x4B>	0
<0x4C>	0
<0x4D>	0
<0x4E>	0
<0x4F>	0
<0x50>	0
<0x51>	0
<0x52>	0
<0x53>	0
<0x54>	0
<0x55>	0
<0x56>	0
<0x57>	0
<0x58>	0
<0x59>	0
<0x5A>	0
<0x5B>	0
<0x5C>	0
<0x5D>	0
<0x5E>	0
<0x5F>	0
<0x60>	0
<0x61>	0
<0x62>	0
<0x63>	0
<0x64>	0
<0x65>	0
<0x66>	0
<0x67>	0
<0x68>	0
<0x69>	0
<0x6A>	0
<0x6B>	0
<0x6C>	0
<0x6D>	0
<0x6E>	0
<0x6F>	0
<0x70>	0
<0x71>	0
<0x72>	0
<0x73>	0
<0x74>	0
<0x75>	0
<0x76>	0
<0x77>	0
<0x78>	0
<0x79>	0
<0x7A>	0
<0x7B>	0
<0x7C>	0
<0x7D>	0
<0x7E>	0
<0x7F>	0
<0x80>	0
<0x81>	0
<0x82>	0
<0x83>	0
<0x84>	0
<0x85>	0
<0x86>	0
<0x87>	0
<0x88>	0
<0x89>	0
<0x8A>	0
<0x8B>	0
<0x8C>	0
<0x8D>	0
<0x8E>	0
<0x8F>	0
<0x90>	0
<0x91>	0
<0x92>	0
<0x93>	0
<0x94>	0
<0x95>	0
<0x96>	0
<0x97>	0
<0x98>	0
<0x99>	0
<0x9A>	0
<0x9B>	0
<0x9C>	0
<0x9D>	0
<0x9E>	0
<0x9F>	0
<0xA0>	0
<0xA1>	0
<0xA2>	0
<0xA3>	0
<0xA4>	0
<0xA5>	0
<0xA6>	0
<0xA7>	0
<0xA8>	0
<0xA9>	0
<0xAA>	0
<0xAB>	0
<0xAC>	0
<0xAD>	0
<0xAE>	0
<0xAF>	0
<0xB0>	0
<0xB1>	0
<0xB2>	0
<0xB3>	0
<0xB4>	0
<0xB5>	0
<0xB6>	0
<0xB7>	0
<0xB8>	0
<0xB9>	0
<0xBA>	0
<0xBB>	0
<0xBC>	0
<0xBD>	0
<0xBE>	0
<0xBF>	0
<0xC0>	0
<0xC1>	0
<0xC2>	0
<0xC3>	0
<0xC4>	0
<0xC5>	0
<0xC6>	0
<0xC7>	0
<0xC8>	0
<0xC9>	0
<0xCA>	0
<0xCB>	0
<0xCC>	0
<0xCD>	0
<0xCE>	0
<0xCF>	0
<0xD0>	0
<0xD1>	0
<0xD2>	0
<0xD3>	0
<0xD4>	0
<0xD5>	0
<0xD6>	0
<0xD7>	0
<0xD8>	0
<0xD9>	0
<0xDA>	0
<0xDB>	0
<0xDC>	0
<0xDD>	0
<0xDE>	0
<0xDF>	0
<0xE0>	0
<0xE1>	0
<0xE2>	0
<0xE3>	0
<0xE4>	0
<0xE5>	0
<0xE6>	0
<0xE7>	0
<0xE8>	0
<0xE9>	0
<0xEA>	0
<0xEB>	0
<0xEC>	0
<0xED>	0
<0xEE>	0
<0xEF>	0
<0xF0>	0
<0xF1>	0
<0xF2>	0
<0xF3>	0
<0xF4>	0
<0xF5>	0
<0xF6>	0
<0xF7>	0
<0xF8>	0
<0xF9>	0
<0xFA>	0
<0xFB>	0
<0xFC>	0
<0xFD>	0
<0xFE>	0
<0xFF>	0
,	-3.28404
.	-3.32927
▁the	-3.32998
▁and	-3.4998
▁to	-3.74328
▁a	-3.95276
s	-3.97153
▁of	-4.02656
▁	-4.28654
▁in	-4.42084
'	-4.62757
▁for	-4.69525
▁you	-4.79115
▁I	-4.81748
▁that	-4.86911
▁on	-4.97487
:	-5.00053
-	-5.00369
▁with	-5.03722
▁is	-5.10496
▁can	-5.24891
▁or	-5.26349
▁your	-5.31553
▁it	-5.46824
▁are	-5.50703
▁The	-5.51402
?	-5.58641
▁be	-5.61122
▁as	-5.66919
ing	-5.69213
▁more	-5.69593
▁their	-5.75855
!	-5.80286
▁have	-5.81337
▁-	-5.84561
▁some	-5.95725
▁about	-5.97798
▁this	-6.025
▁was	-6.02864
▁from	-6.04036
▁an	-6.05948
▁by	-6.08906
▁our	-6.14331
▁how	-6.14949
m	-6.20139
▁we	-6.20552
d	-6.20727
▁This	-6.21694
▁has	-6.29949
▁at	-6.30225
▁also	-6.32598
t	-6.34605
re	-6.35017
ed	-6.40769
▁me	-6.42291
▁they	-6.43491
▁"	-6.44577
▁make	-6.45444
▁like	-6.48507
▁help	-6.50143
▁Can	-6.50805
▁It	-6.51245
▁any	-6.51247
▁will	-6.52701
▁my	-6.5424
▁if	-6.54851
▁could	-6.56921
▁such	-6.58286
▁other	-6.59416
▁which	-6.61148
▁up	-6.62291
▁provide	-6.64092
▁text	-6.65606
▁them	-6.67049
▁use	-6.67381
▁would	-6.69028
▁its	-6.72204
▁time	-6.72656
▁her	-6.72908
▁been	-6.74432
▁these	-6.74931
"	-6.7546
▁but	-6.76273
▁well	-6.76547
▁into	-6.76786
▁who	-6.8188
▁[	-6.8227
▁2.	-6.82319
▁1.	-6.82595
▁new	-6.83624
▁3.	-6.84219
▁not	-6.84418
▁(	-6.84807
▁#	-6.85659
▁using	-6.87137
▁input	-6.87406
▁add	-6.87839
▁had	-6.89041
▁his	-6.8923
▁work	-6.89583
▁A	-6.90094
▁out	-6.90946
)	-6.91414
▁In	-6.91916
ve	-6.92777
▁great	-6.93524
▁4.	-6.94012
▁project	-6.95941
▁one	-6.96285
▁information	-7.00215
▁while	-7.01483
▁all	-7.0191
▁including	-7.02028
er	-7.03691
▁were	-7.04039
▁know	-7.06102
▁create	-7.08525
y	-7.0944
’	-7.09944
▁used	-7.11239
▁should	-7.11337
▁there	-7.12587
▁over	-7.1421
▁different	-7.16146
▁5.	-7.18087
ly	-7.18566
▁Here	-7.1893
▁so	-7.19325
▁research	-7.22237
▁think	-7.23531
▁what	-7.23557
▁examples	-7.24556
.]	-7.25661
▁through	-7.25712
▁key	-7.25723
▁do	-7.26108
▁each	-7.2669
▁impact	-7.28116
▁specific	-7.28133
▁Best	-7.2852
▁way	-7.29946
▁details	-7.306
ll	-7.31738
▁support	-7.32414
▁may	-7.32994
e	-7.33014
▁data	-7.34893
▁Emily	-7.34912
▁love	-7.35658
▁when	-7.36972
▁We	-7.37077
▁students	-7.37099
▁few	-7.39179
▁experience	-7.40214
▁where	-7.40439
▁hope	-7.40782
▁he	-7.40829
▁life	-7.41737
▁during	-7.42235
▁she	-7.4266
n	-7.43406
▁social	-7.44199
▁really	-7.44456
▁These	-7.45062
▁many	-7.47161
▁re	-7.48053
▁include	-7.48931
▁1	-7.4935
▁need	-7.49385
▁water	-7.50049
▁As	-7.50744
▁They	-7.50854
▁For	-7.50979
▁You	-7.51273
▁Use	-7.51314
▁share	-7.5174
▁made	-7.51797
▁people	-7.52371
▁world	-7.53179
▁together	-7.53881
al	-7.54675
▁potential	-7.55099
▁see	-7.55673
▁content	-7.55768
▁find	-7.56184
▁just	-7.56969
▁If	-7.58041
▁essential	-7.58517
r	-7.60697
▁health	-7.60908
▁most	-7.61096
▁tips	-7.62885
▁Sure	-7.64515
▁take	-7.65252
_	-7.65611
▁significant	-7.65824
▁program	-7.66124
▁between	-7.66659
▁energy	-7.67621
▁story	-7.67625
▁making	-7.67926
th	-7.67945
▁unique	-7.69493
▁ideas	-7.69597
▁example	-7.70064
▁next	-7.70269
▁without	-7.70574
▁sure	-7.72086
▁high	-7.72128
▁get	-7.72291
▁user	-7.72461
▁Alex	-7.72496
▁before	-7.73248
▁ensure	-7.7348
▁even	-7.73889
▁discuss	-7.73962
▁resources	-7.743
▁team	-7.74538
▁both	-7.74632
▁forward	-7.75376
▁local	-7.75768
▁want	-7.75862
▁Let	-7.76968
▁Yes	-7.77048
▁community	-7.77177
/	-7.77264
es	-7.78264
▁media	-7.78381
▁2	-7.78734
▁here	-7.79879
(	-7.80849
▁concise	-7.81546
▁around	-7.81638
▁am	-7.81789
▁food	-7.81992
▁=	-7.8201
▁than	-7.82215
▁person	-7.82239
a	-7.82693
▁music	-7.83248
▁improve	-7.83353
▁best	-7.83403
▁until	-7.84184
▁learning	-7.84496
▁give	-7.84614
▁challenges	-7.84839
▁found	-7.85092
▁let	-7.85314
▁us	-7.85324
▁6.	-7.85832
i	-7.86007
▁working	-7.86026
▁However	-7.86111
▁main	-7.86283
▁design	-7.86693
▁own	-7.86923
▁development	-7.87154
▁Hi	-7.87235
▁system	-7.87705
▁further	-7.87994
▁might	-7.88549
▁AI	-7.88948
▁feel	-7.89149
▁please	-7.89355
▁technology	-7.90085
▁Additionally	-7.91145
▁She	-7.91367
▁set	-7.9142
▁process	-7.91832
▁three	-7.92401
▁first	-7.92795
▁What	-7.93001
▁`	-7.93403
▁very	-7.93586
▁important	-7.93694
▁small	-7.93817
]	-7.93913
▁present	-7.9401
▁thoughts	-7.94079
▁day	-7.94423
▁He	-7.94567
▁interested	-7.95062
▁Overall	-7.95203
▁offer	-7.95299
;	-7.95303
▁often	-7.95481
▁insights	-7.95662
▁Do	-7.95868
▁history	-7.96075
▁Certainly	-7.97085
▁short	-7.97613
in	-7.97872
▁long	-7.97882
▁look	-7.98169
▁keep	-7.98278
▁necessary	-7.98305
▁those	-7.98573
▁being	-7.9886
▁language	-7.9902
▁only	-7.9946
▁By	-7.99673
▁point	-7.99719
▁regards	-7.99762
▁features	-7.99923
▁two	-8.00547
▁reduce	-8.00971
▁power	-8.01055
▁S	-8.01152
▁several	-8.01673
▁after	-8.01827
▁options	-8.01861
▁available	-8.02018
▁back	-8.02096
▁assistant	-8.02367
▁website	-8.02734
▁Could	-8.02804
▁feedback	-8.03463
You	-8.03623
▁week	-8.03877
▁good	-8.04255
▁Dr	-8.04531
writing	-8.04801
▁role	-8.05886
to	-8.06235
▁call	-8.06887
▁family	-8.07398
▁then	-8.07398
g	-8.07855
▁second	-8.07858
on	-8.07912
▁app	-8.08142
▁start	-8.08146
▁learn	-8.08321
▁better	-8.08488
S	-8.08534
▁How	-8.08782
▁traditional	-8.08972
▁down	-8.09281
▁sense	-8.09652
▁personal	-8.09858
▁hear	-8.0992
▁focusing	-8.09996
▁Rewrite	-8.10306
▁users	-8.10324
▁To	-8.10561
ers	-8.10786
▁understand	-8.11021
▁engaging	-8.11046
▁activities	-8.11137
▁various	-8.11312
▁offers	-8.11409
▁skills	-8.11896
▁try	-8.11907
▁collaboration	-8.11952
▁number	-8.12352
▁no	-8.12472
▁much	-8.12799
▁ways	-8.12948
▁And	-8.13307
▁natural	-8.13363
▁third	-8.13386
▁place	-8.1392
▁summary	-8.14017
c	-8.14038
▁Write	-8.14054
▁actions	-8.14077
▁suggestions	-8.14125
▁paper	-8.14189
▁audience	-8.14251
▁materials	-8.1445
▁techniques	-8.14542
▁plan	-8.14728
o	-8.14902
or	-8.15049
▁idea	-8.15149
▁additional	-8.15263
▁One	-8.15647
▁Your	-8.1598
▁meeting	-8.1618
▁focus	-8.16625
▁works	-8.17428
▁industry	-8.17595
▁doing	-8.17738
▁art	-8.17878
▁always	-8.17969
▁free	-8.18074
▁explore	-8.18118
▁clear	-8.18231
▁range	-8.18375
▁Thank	-8.18828
▁access	-8.18871
▁creating	-8.18981
▁That	-8.19114
▁suggest	-8.19365
▁believe	-8.19513
▁C	-8.19546
▁cultural	-8.19815
▁minutes	-8.19896
▁home	-8.20676
▁list	-8.20906
▁oil	-8.21433
▁conference	-8.21772
▁course	-8.21782
▁understanding	-8.21806
▁still	-8.22221
▁positive	-8.22378
▁change	-8.22431
▁city	-8.22772
`	-8.23289
▁last	-8.23298
▁years	-8.24749
▁future	-8.24934
▁email	-8.25033
▁able	-8.25288
▁professional	-8.25375
▁practices	-8.25666
▁education	-8.26416
▁study	-8.26703
▁products	-8.26736
▁excited	-8.26941
▁Please	-8.2695
▁style	-8.27323
b	-8.27542
▁benefits	-8.2784
▁online	-8.27905
l	-8.28173
▁based	-8.28228
▁customer	-8.28365
▁success	-8.28432
▁happy	-8.28481
▁end	-8.28743
▁product	-8.28753
▁popular	-8.28803
▁cup	-8.28903
▁easy	-8.29235
▁events	-8.29473
ic	-8.2961
▁importance	-8.29618
▁7.	-8.29734
▁recipe	-8.30166
▁real	-8.30417
▁3	-8.30483
▁tell	-8.31044
▁part	-8.31107
▁areas	-8.31762
▁event	-8.31772
▁meet	-8.32002
▁Thanks	-8.32207
▁experiences	-8.32297
▁Add	-8.32361
▁Sarah	-8.32423
▁company	-8.32527
▁sentence	-8.32912
▁light	-8.32941
▁tools	-8.3322
▁customers	-8.33663
▁come	-8.33766
▁flavor	-8.33866
▁self	-8.34007
▁something	-8.34061
▁public	-8.34365
▁services	-8.34426
▁known	-8.34452
▁book	-8.34599
▁group	-8.34673
▁locations	-8.35348
▁mental	-8.35582
▁don	-8.35595
▁sound	-8.35596
▁area	-8.35629
▁strategies	-8.35754
▁function	-8.35929
▁objective	-8.36317
▁writing	-8.36581
▁him	-8.3672
▁looking	-8.36817
▁go	-8.37043
A	-8.37074
▁particularly	-8.37168
▁expertise	-8.37281
▁marketing	-8.37284
▁progress	-8.37937
▁dates	-8.38278
▁approach	-8.38473
▁business	-8.38775
▁sounds	-8.38792
▁sauce	-8.38911
▁top	-8.39098
▁helpful	-8.39142
."	-8.39287
▁sustainable	-8.39416
▁questions	-8.39531
ion	-8.39747
▁right	-8.39818
k	-8.40275
▁needs	-8.40374
▁```	-8.40689
▁types	-8.40692
p	-8.40702
▁goals	-8.40785
▁fresh	-8.4079
▁environment	-8.40988
▁Michael	-8.41221
▁effective	-8.41253
▁sentences	-8.41336
▁children	-8.41798
▁intentions	-8.41949
▁thinking	-8.41989
▁game	-8.42025
▁school	-8.42196
▁lead	-8.42418
▁color	-8.42494
▁cheese	-8.42499
▁others	-8.42705
▁increase	-8.42897
▁stay	-8.43307
▁elements	-8.43387
▁ingredients	-8.43394
Provide	-8.43429
▁message	-8.43494
▁performance	-8.43551
▁management	-8.44059
▁issues	-8.44181
▁value	-8.44362
▁presentation	-8.44372
▁Dear	-8.44491
▁pronouns	-8.44769
▁body	-8.44848
▁helps	-8.44865
▁growth	-8.45048
▁variety	-8.45067
The	-8.45202
▁provides	-8.45513
▁{	-8.45622
▁off	-8.45817
C	-8.45922
▁But	-8.46057
▁Hey	-8.46139
▁space	-8.46405
▁quality	-8.46417
▁Look	-8.46496
▁wanted	-8.46566
▁appreciate	-8.46935
▁providing	-8.47232
▁video	-8.47585
▁every	-8.47678
▁individuals	-8.4799
▁culture	-8.4813
▁year	-8.4816
▁opportunity	-8.48548
▁Some	-8.48586
▁large	-8.48727
▁B	-8.48957
▁case	-8.49029
▁overall	-8.49197
based	-8.49333
▁training	-8.49857
▁perfect	-8.50012
▁brand	-8.50101
f	-8.50147
▁There	-8.50173
▁de	-8.50816
▁changes	-8.50825
▁healthy	-8.50895
▁journey	-8.50982
▁possible	-8.5105
▁modern	-8.51238
▁open	-8.51471
▁character	-8.5181
▁too	-8.51849
▁field	-8.51865
▁track	-8.52115
▁practice	-8.52242
▁E	-8.52318
▁programs	-8.52351
▁analysis	-8.52412
▁become	-8.52646
▁now	-8.52874
▁detailed	-8.53027
▁develop	-8.53355
▁must	-8.53488
Extract	-8.53677
▁recent	-8.53725
▁Also	-8.5385
▁pepper	-8.53984
ation	-8.54009
▁throughout	-8.54232
▁continue	-8.54807
▁recommendations	-8.54809
▁interesting	-8.54975
▁promote	-8.55279
▁communication	-8.55595
▁within	-8.55787
▁systems	-8.56035
an	-8.56325
▁}	-8.56462
F	-8.56644
▁enhance	-8.56705
▁reach	-8.56784
▁helped	-8.56866
▁opportunities	-8.57305
▁bring	-8.57438
▁step	-8.5761
▁across	-8.5771
▁science	-8.57824
▁strong	-8.58026
▁physical	-8.58138
▁nature	-8.58152
▁following	-8.58361
▁search	-8.58393
▁vegetables	-8.58588
▁show	-8.59052
▁complex	-8.59087
▁meaning	-8.59207
▁historical	-8.59255
▁play	-8.59546
D	-8.59812
▁$	-8.5984
▁points	-8.60026
▁businesses	-8.60068
▁heat	-8.60345
▁care	-8.60429
▁service	-8.60462
▁control	-8.60505
▁environmental	-8.60599
▁When	-8.61049
▁low	-8.61096
▁side	-8.61367
B	-8.61753
▁bit	-8.61819
▁John	-8.61959
▁face	-8.62461
▁allow	-8.62795
▁P	-8.62888
▁things	-8.62938
▁build	-8.63629
▁sources	-8.63711
▁against	-8.63837
▁salt	-8.63862
▁includes	-8.64068
▁same	-8.64354
▁another	-8.6443
friendly	-8.64615
▁did	-8.64751
▁air	-8.64804
▁result	-8.65374
▁human	-8.6564
▁efforts	-8.65659
▁Wow	-8.65683
▁past	-8.65683
▁With	-8.6571
▁dish	-8.65943
▁T	-8.66004
▁Create	-8.66035
▁consider	-8.66193
▁current	-8.66346
▁building	-8.6643
▁allows	-8.66511
▁never	-8.66641
▁market	-8.66642
▁steps	-8.66762
▁relevant	-8.66984
▁economic	-8.66993
▁touch	-8.67165
▁recommend	-8.67757
▁Our	-8.67795
▁taste	-8.67838
le	-8.6785
I	-8.68274
▁check	-8.68525
▁review	-8.68727
▁Be	-8.69054
▁climate	-8.6932
▁material	-8.69329
▁prevent	-8.69524
▁address	-8.69979
▁heart	-8.70025
▁amazing	-8.70028
▁type	-8.70078
▁colors	-8.7028
▁application	-8.7053
▁towards	-8.70663
▁incorporate	-8.70704
▁code	-8.70757
▁F	-8.70894
▁under	-8.71279
x	-8.71375
▁valuable	-8.71378
▁fun	-8.71431
▁designed	-8.71548
▁government	-8.71667
▁projects	-8.71668
▁suggests	-8.71734
▁un	-8.71966
▁taking	-8.72396
▁New	-8.72499
▁finds	-8.72562
▁job	-8.72752
▁dishes	-8.72805
▁level	-8.72987
▁chicken	-8.73225
▁guide	-8.73331
h	-8.73631
▁findings	-8.73633
▁successful	-8.73669
▁enjoy	-8.73817
▁early	-8.73828
▁stress	-8.73898
able	-8.74
▁feature	-8.74368
▁similar	-8.74372
▁garlic	-8.74675
▁results	-8.74843
▁So	-8.74925
2	-8.75021
▁software	-8.75036
▁characters	-8.75125
▁leading	-8.75442
▁moment	-8.75631
▁10	-8.75806
▁ability	-8.75889
▁comprehensive	-8.75901
▁send	-8.75985
up	-8.76181
▁//	-8.7635
▁along	-8.76417
▁adding	-8.76499
▁communities	-8.76673
▁simple	-8.77282
▁times	-8.77351
T	-8.77383
▁lot	-8.775
▁members	-8.77681
▁hand	-8.778
▁deep	-8.77801
▁non	-8.77868
▁platform	-8.77878
▁friends	-8.77926
▁visit	-8.78054
▁crucial	-8.78175
▁effectively	-8.78195
▁knowledge	-8.78299
▁interactive	-8.78312
time	-8.78382
▁American	-8.78394
▁poem	-8.78446
▁sweet	-8.78613
▁report	-8.78696
▁due	-8.78786
▁U	-8.78817
▁formal	-8.79051
▁identify	-8.79469
▁class	-8.79764
▁Make	-8.79799
▁levels	-8.79933
▁response	-8.80037
▁going	-8.80323
▁name	-8.80385
▁delicious	-8.80425
▁fascinating	-8.80653
▁addition	-8.80729
▁line	-8.80805
▁schedule	-8.81142
▁emotional	-8.8132
▁methods	-8.81508
▁thought	-8.81591
▁19	-8.81652
▁reducing	-8.81665
▁tool	-8.81697
▁does	-8.8172
▁creative	-8.81756
▁article	-8.81768
▁cooking	-8.81795
▁attention	-8.82114
ch	-8.82224
▁engagement	-8.82278
us	-8.82377
▁because	-8.82604
u	-8.82667
▁incorporating	-8.82791
▁G	-8.82963
com	-8.83025
▁provided	-8.8304
▁avoid	-8.8311
▁plant	-8.83111
▁red	-8.83305
▁led	-8.83369
▁core	-8.83428
▁5	-8.83432
▁retain	-8.83452
E	-8.83701
▁especially	-8.83758
▁choose	-8.83852
▁region	-8.83916
▁engage	-8.83997
▁again	-8.84026
▁plans	-8.84114
▁renewable	-8.84255
na	-8.84362
▁soon	-8.8449
▁interest	-8.845
▁Re	-8.84522
▁follow	-8.84706
▁beauty	-8.84783
▁string	-8.84821
▁latest	-8.84837
▁transportation	-8.84933
▁effects	-8.8494
it	-8.85201
▁feeling	-8.85475
▁8.	-8.85614
▁collaborate	-8.85666
▁yourself	-8.85803
▁store	-8.86123
▁preserving	-8.8643
▁target	-8.86612
▁companies	-8.86639
▁series	-8.86721
▁Remember	-8.87076
en	-8.87079
▁coffee	-8.87158
▁return	-8.87278
ness	-8.87327
▁special	-8.87341
▁relationships	-8.87443
ity	-8.87498
▁ancient	-8.87548
▁4	-8.87729
▁daily	-8.87858
▁words	-8.88035
▁D	-8.88078
▁young	-8.88092
▁base	-8.88133
▁O	-8.88357
▁powerful	-8.88387
▁hard	-8.88613
▁black	-8.88681
▁Tuesday	-8.88909
▁needed	-8.89125
▁file	-8.8914
▁patterns	-8.89174
▁mix	-8.89185
▁since	-8.89219
▁size	-8.89363
▁achieve	-8.89371
▁M	-8.89433
▁sugar	-8.8948
▁production	-8.89622
▁emotions	-8.9048
▁night	-8.90614
ment	-8.9068
▁among	-8.9072
▁skin	-8.90738
▁form	-8.90856
,"	-8.90858
▁common	-8.90954
▁stories	-8.91182
▁maintain	-8.91207
▁balance	-8.91268
is	-8.91302
▁mind	-8.91329
▁maintaining	-8.91417
▁difficult	-8.91446
P	-8.91511
▁bowl	-8.91535
▁involved	-8.9186
▁campaign	-8.91992
li	-8.92074
▁mixture	-8.92083
▁organizations	-8.92095
▁critical	-8.9218
▁factors	-8.92305
id	-8.92385
ri	-8.92486
▁images	-8.92574
▁While	-8.92646
).	-8.92649
▁encourage	-8.92668
▁security	-8.92714
▁beautiful	-8.92794
▁section	-8.92825
▁butter	-8.92852
▁green	-8.93021
▁cool	-8.93052
▁risk	-8.93192
▁action	-8.93254
▁explain	-8.93285
▁upcoming	-8.93317
▁faced	-8.93435
▁conditions	-8.93462
▁exploring	-8.93524
▁affect	-8.93583
ne	-8.93606
▁educational	-8.93704
▁according	-8.9383
▁read	-8.94056
▁collaborating	-8.94114
▁felt	-8.94201
▁connect	-8.94394
w	-8.94406
▁Of	-8.94437
▁lives	-8.94504
▁activity	-8.94533
▁related	-8.94661
▁multiple	-8.94831
▁countries	-8.94884
by	-8.95044
▁truly	-8.95058
▁structure	-8.9526
▁protein	-8.95272
▁clean	-8.95527
▁challenging	-8.95551
▁setting	-8.95569
▁planning	-8.9574
▁favorite	-8.9603
▁digital	-8.96361
▁away	-8.96436
▁proposal	-8.96527
▁post	-8.96674
▁University	-8.96674
▁trip	-8.96723
▁order	-8.96977
▁piece	-8.97004
▁cost	-8.97066
▁array	-8.97108
▁draft	-8.97159
▁mentioned	-8.97169
▁travel	-8.97215
▁room	-8.97235
▁full	-8.97449
▁financial	-8.97476
ro	-8.97496
▁recently	-8.97611
▁exciting	-8.97729
▁definitely	-8.97783
▁instructions	-8.97793
▁detail	-8.97974
ry	-8.98236
▁Despite	-8.98289
▁reaching	-8.98397
▁move	-8.98452
▁option	-8.98691
▁given	-8.98837
▁developing	-8.98853
▁virtual	-8.98888
▁conversation	-8.98974
▁seen	-8.99104
▁everything	-8.99274
▁amount	-8.99349
▁texture	-8.99409
▁cream	-8.99706
ar	-8.99932
est	-9.00006
ist	-9.00079
ther	-9.00125
▁least	-9.00232
▁sharing	-9.00265
▁healthcare	-9.00349
▁added	-9.00355
man	-9.00471
▁someone	-9.00472
▁started	-9.00497
▁put	-9.00826
▁location	-9.00998
▁waste	-9.01345
▁Consider	-9.01404
▁chopped	-9.01423
st	-9.01808
▁state	-9.02108
▁Absolutely	-9.02325
G	-9.02397
▁co	-9.02399
▁species	-9.02476
▁individual	-9.02545
▁values	-9.02819
▁behavior	-9.02871
▁hot	-9.02877
("	-9.02889
▁studies	-9.02894
▁shared	-9.02987
▁student	-9.02991
▁leaves	-9.03011
ra	-9.03051
▁themes	-9.03091
▁salad	-9.03158
▁1/2	-9.03198
z	-9.03281
▁ground	-9.03307
▁less	-9.0353
▁month	-9.03648
▁visual	-9.03718
▁applications	-9.0378
▁manage	-9.03839
▁country	-9.0389
▁said	-9.03984
▁teaching	-9.04105
▁tasks	-9.04116
▁today	-9.0425
▁relationship	-9.04434
▁live	-9.04617
▁–	-9.04623
▁items	-9.04816
▁uses	-9.04923
▁meditation	-9.0494
▁p	-9.05133
▁K	-9.05182
▁advice	-9.052
▁wide	-9.05546
▁depend	-9.05726
▁print	-9.05759
▁focused	-9.05806
▁protect	-9.06183
el	-9.06364
▁topics	-9.06721
▁N	-9.06847
▁car	-9.06863
▁personalized	-9.06935
▁plants	-9.07155
▁milk	-9.07262
▁preferences	-9.07264
et	-9.07463
ta	-9.0751
▁safety	-9.07605
▁highly	-9.07633
▁chat	-9.07648
▁mindfulness	-9.07723
▁version	-9.07745
▁warm	-9.07865
▁hands	-9.07916
▁practical	-9.07999
▁My	-9.08034
▁platforms	-9.08177
▁rich	-9.08231
▁e	-9.0826
▁R	-9.08323
▁takes	-9.08347
free	-9.08391
▁organization	-9.08435
▁behind	-9.0844
▁powder	-9.08458
ton	-9.08561
▁b	-9.08592
▁innovative	-9.08601
▁vegan	-9.08803
▁exercises	-9.0886
▁solutions	-9.08916
▁olive	-9.08959
▁cover	-9.0904
▁hours	-9.09062
il	-9.09077
▁contribute	-9.09323
▁left	-9.09388
1	-9.09432
▁career	-9.09943
▁called	-9.10028
▁National	-9.10048
▁page	-9.10099
ia	-9.10111
▁technologies	-9.10203
ive	-9.10663
▁per	-9.1074
▁topic	-9.10774
▁created	-9.11021
ism	-9.11262
▁quickly	-9.1135
▁source	-9.11474
▁method	-9.11556
age	-9.11779
▁juice	-9.11831
▁little	-9.11873
de	-9.1202
▁instead	-9.12393
▁influence	-9.12504
▁animals	-9.12632
▁white	-9.12774
▁having	-9.12938
▁film	-9.12976
▁Once	-9.13011
ting	-9.13458
▁significance	-9.13507
▁living	-9.13549
▁negative	-9.13615
▁handle	-9.13617
▁why	-9.13661
▁cause	-9.1376
▁major	-9.13853
▁kind	-9.13936
▁test	-9.13946
▁baking	-9.13972
▁oven	-9.14015
ur	-9.14106
se	-9.14293
▁devices	-9.14341
▁concepts	-9.1455
▁David	-9.14633
co	-9.14699
▁discussion	-9.14745
rs	-9.14752
▁terms	-9.14801
▁days	-9.15056
W	-9.15482
▁dance	-9.15584
▁accessible	-9.15608
▁weather	-9.15647
▁break	-9.15696
▁easily	-9.15901
▁meal	-9.15935
▁regular	-9.15977
▁political	-9.1614
▁run	-9.16154
▁comes	-9.16172
▁bread	-9.16208
▁head	-9.16339
ir	-9.1643
▁employees	-9.16517
▁groups	-9.16575
▁getting	-9.16688
▁once	-9.16763
▁vivid	-9.16827
▁goal	-9.16878
▁anything	-9.16969
▁done	-9.17095
▁became	-9.17098
the	-9.17207
▁exercise	-9.1732
▁extra	-9.17345
▁temperature	-9.1735
▁everyone	-9.17354
▁period	-9.17438
▁image	-9.17516
▁artists	-9.1755
▁medical	-9.17604
▁advanced	-9.17621
year	-9.17682
▁played	-9.17807
▁1/4	-9.18111
▁concerns	-9.18173
▁certain	-9.18279
▁involves	-9.18402
▁looks	-9.18563
▁context	-9.18575
▁strength	-9.18596
▁challenge	-9.18692
▁promoting	-9.1871
▁child	-9.18933
▁serve	-9.18994
▁issue	-9.19111
▁reading	-9.19186
▁network	-9.1927
▁workshop	-9.19326
▁scientific	-9.19335
▁knew	-9.19426
▁anxiety	-9.19469
▁difference	-9.19471
▁afternoon	-9.19492
▁Another	-9.19537
▁routine	-9.19753
ian	-9.19788
▁friendly	-9.19802
▁&	-9.19965
▁above	-9.2001
▁enough	-9.20235
▁else	-9.20259
▁gain	-9.20617
▁rice	-9.20782
▁Take	-9.20848
▁came	-9.20947
▁adjust	-9.20977
▁An	-9.20985
▁Her	-9.21018
▁starting	-9.21022
▁season	-9.21042
▁c	-9.21075
▁numbers	-9.21122
▁strategy	-9.21166
▁curriculum	-9.21348
▁excellent	-9.21394
▁final	-9.21443
▁developed	-9.21588
▁Thompson	-9.21661
▁located	-9.21716
▁society	-9.21737
▁cook	-9.21847
▁improving	-9.21944
ine	-9.22091
▁means	-9.2221
▁learned	-9.22477
▁sea	-9.22549
▁makes	-9.22589
te	-9.22757
▁trying	-9.22795
▁thrilled	-9.22812
▁matter	-9.22883
▁9.	-9.22929
▁pre	-9.23082
▁gratitude	-9.23123
▁contact	-9.23183
N	-9.23184
▁increased	-9.23479
▁guidance	-9.23566
old	-9.23574
),	-9.23626
▁players	-9.23652
▁depth	-9.23872
▁center	-9.23874
▁background	-9.23966
▁sales	-9.24074
▁Great	-9.24304
▁navigate	-9.24317
▁likely	-9.24443
▁Finally	-9.24463
▁garden	-9.24508
▁budget	-9.24548
▁problem	-9.24605
▁chance	-9.24639
▁complete	-9.24678
▁initiatives	-9.25041
▁true	-9.25158
▁W	-9.2516
▁classic	-9.25242
▁Hope	-9.25269
quality	-9.2528
▁De	-9.25337
▁require	-9.25379
▁higher	-9.25476
▁La	-9.25558
H	-9.25623
▁themselves	-9.25691
▁collection	-9.25758
▁save	-9.25874
▁grant	-9.26005
▁equipment	-9.26026
▁soup	-9.26048
▁view	-9.26072
▁United	-9.26298
▁implemented	-9.2635
▁overcome	-9.26368
▁town	-9.26369
[	-9.26427
▁global	-9.26448
▁carbon	-9.26587
▁games	-9.26603
▁funding	-9.26873
▁mobile	-9.26891
▁shape	-9.26958
▁conservation	-9.26975
▁remember	-9.2702
▁awareness	-9.27038
▁decision	-9.27161
▁lesson	-9.27274
>	-9.27289
▁script	-9.27328
▁Provide	-9.27365
▁policies	-9.27376
▁L	-9.27575
ies	-9.27678
▁f	-9.27688
▁sleep	-9.27747
▁aspects	-9.27784
▁web	-9.27893
▁treatment	-9.27912
▁began	-9.27913
▁|	-9.27929
▁dry	-9.28285
▁flavors	-9.28293
▁deadline	-9.28383
▁pieces	-9.28573
▁grateful	-9.28597
R	-9.28764
▁write	-9.28775
▁associated	-9.28857
▁videos	-9.28896
▁readers	-9.28993
▁measures	-9.29038
▁man	-9.29097
▁far	-9.29212
▁St	-9.29277
▁curious	-9.29386
▁War	-9.2939
▁easier	-9.29435
▁Maybe	-9.29461
V	-9.29492
O	-9.29545
▁pan	-9.29548
▁discussing	-9.29609
▁solar	-9.29653
▁Many	-9.29702
mo	-9.29715
▁hair	-9.29732
▁influenced	-9.29773
▁cuisine	-9.29808
ent	-9.29837
ce	-9.29904
▁After	-9.30057
):	-9.30091
▁teaspoon	-9.30206
▁dark	-9.30219
▁generate	-9.30254
▁remove	-9.3039
▁20	-9.3043
▁wind	-9.30469
▁glad	-9.30556
out	-9.3084
▁updated	-9.30874
▁model	-9.30899
▁medium	-9.30933
▁offering	-9.30959
▁whe	-9.30964
▁fruit	-9.31033
▁famous	-9.31105
▁Name	-9.31135
▁highlight	-9.31138
▁lower	-9.31171
▁eye	-9.31611
▁essay	-9.31615
▁sun	-9.31657
▁receive	-9.31717
▁turn	-9.31721
▁close	-9.31858
ling	-9.31881
▁fitness	-9.3211
▁choice	-9.32139
step	-9.3215
▁trade	-9.32162
▁communicate	-9.32173
▁propose	-9.32277
▁interests	-9.3237
▁quite	-9.32381
▁connection	-9.32489
▁showcase	-9.32519
am	-9.32611
▁say	-9.32627
▁hearing	-9.32676
▁atmosphere	-9.32786
▁movement	-9.32866
▁benefit	-9.32923
▁seems	-9.33075
▁H	-9.33101
▁World	-9.33117
▁effort	-9.33134
▁18	-9.33182
▁serving	-9.33195
term	-9.33285
▁whole	-9.33369
▁flour	-9.3337
▁finding	-9.33393
▁patient	-9.3358
▁required	-9.33689
▁restaurant	-9.33844
▁months	-9.34034
▁Their	-9.34186
im	-9.34209
▁grow	-9.34209
▁stand	-9.34299
▁rest	-9.34307
▁scene	-9.34417
▁chocolate	-9.34493
▁soft	-9.34534
▁architecture	-9.34674
▁display	-9.34826
▁sustainability	-9.34883
▁6	-9.34891
▁ever	-9.34907
▁meat	-9.34928
▁lost	-9.34965
▁fantastic	-9.35026
do	-9.35057
▁board	-9.35133
me	-9.35167
▁analyze	-9.3518
▁women	-9.35197
▁diverse	-9.35198
▁weight	-9.35291
ter	-9.35352
▁con	-9.35498
▁brown	-9.35603
▁designs	-9.3564
▁rates	-9.35792
▁word	-9.35806
▁hold	-9.35824
▁moments	-9.35874
ted	-9.35875
▁soil	-9.35901
be	-9.3598
less	-9.36017
▁wondering	-9.36088
▁international	-9.3612
▁rate	-9.36265
▁took	-9.36443
K	-9.36443
▁wine	-9.36548
▁@	-9.36611
3	-9.36884
▁15	-9.36969
▁0	-9.37063
▁visually	-9.37129
▁site	-9.37131
▁currently	-9.37177
▁infrastructure	-9.37292
▁perspective	-9.37389
ary	-9.3739
▁built	-9.37524
▁All	-9.37525
▁tone	-9.37536
▁costs	-9.3756
▁reader	-9.37605
no	-9.37797
▁clients	-9.37814
▁campaigns	-9.37863
▁trust	-9.37883
▁fear	-9.37911
▁quick	-9.37943
▁Don	-9.3795
);	-9.3798
▁position	-9.38086
▁significantly	-9.38169
▁length	-9.38226
▁element	-9.38245
▁greatly	-9.38346
▁evidence	-9.3837
▁old	-9.3838
▁academic	-9.38501
▁big	-9.38505
▁near	-9.3853
▁match	-9.38705
as	-9.38726
▁blog	-9.38727
▁confident	-9.38833
▁alternative	-9.38908
▁fit	-9.38992
▁parents	-9.39009
▁styles	-9.39094
▁situation	-9.39126
▁safe	-9.39134
▁friend	-9.39318
▁novel	-9.39407
▁align	-9.39418
▁letter	-9.39422
▁trees	-9.39465
▁already	-9.39706
▁protagonist	-9.39871
▁+	-9.39878
▁fish	-9.39931
▁Google	-9.39954
()	-9.39985
▁lemon	-9.40089
▁smooth	-9.40381
▁phone	-9.40382
▁narrative	-9.4045
line	-9.40475
▁Co	-9.40503
▁included	-9.40514
ul	-9.40599
▁date	-9.40715
▁<	-9.40851
▁regarding	-9.40856
▁helping	-9.40859
▁seeds	-9.40957
ie	-9.41166
▁ready	-9.4122
▁fields	-9.41232
▁*	-9.41253
▁therapy	-9.41257
ant	-9.41271
▁machine	-9.41312
▁Wednesday	-9.41339
▁Enjoy	-9.41395
▁surface	-9.41412
▁On	-9.41536
▁million	-9.41548
▁School	-9.41606
▁yet	-9.41709
▁prepare	-9.41753
▁implementing	-9.41768
▁loss	-9.41776
▁cooked	-9.41794
▁produce	-9.4183
▁inspired	-9.42011
▁secure	-9.42237
▁won	-9.42272
▁deeper	-9.42289
▁news	-9.42306
▁sum	-9.42308
▁Conference	-9.42361
▁technique	-9.42402
▁worked	-9.42443
ci	-9.42483
▁No	-9.42547
go	-9.42602
▁honey	-9.42693
▁purchase	-9.4276
▁combination	-9.42823
▁wait	-9.42829
▁“	-9.42857
▁incredible	-9.42886
▁received	-9.4295
▁identity	-9.43113
▁efficient	-9.43231
ance	-9.43436
▁comfortable	-9.43465
▁10.	-9.435
▁Are	-9.435
▁availability	-9.43511
▁visitors	-9.43607
▁At	-9.4362
▁ensuring	-9.43683
▁morning	-9.4374
▁particular	-9.4375
▁got	-9.43756
▁lessons	-9.43997
▁coming	-9.4415
▁sensory	-9.44433
▁families	-9.44514
▁age	-9.44588
▁enjoyed	-9.44644
ate	-9.44675
▁ask	-9.44935
▁written	-9.44974
▁comments	-9.44996
▁herbs	-9.44998
▁8	-9.45018
▁saw	-9.45076
▁tea	-9.45266
▁shows	-9.45283
▁highlights	-9.45292
▁convey	-9.45495
▁affected	-9.45513
▁City	-9.45974
▁later	-9.45979
▁limited	-9.46226
▁author	-9.46309
▁plastic	-9.46377
M	-9.46404
▁completely	-9.4641
▁eager	-9.46447
▁taken	-9.46558
▁park	-9.46566
▁cut	-9.46846
▁money	-9.46936
▁industries	-9.47112
▁outside	-9.47145
▁inspire	-9.47177
▁Have	-9.47286
▁onion	-9.47308
▁spices	-9.47313
▁implement	-9.47357
▁account	-9.47387
▁efficiency	-9.4742
▁outcomes	-9.47473
▁eco	-9.47478
▁appropriate	-9.4755
▁discovered	-9.47575
▁eyes	-9.47634
▁fully	-9.47641
▁creatures	-9.47679
▁ice	-9.47681
▁war	-9.47809
▁spread	-9.47817
▁pain	-9.47838
▁conclusion	-9.47884
▁Johnson	-9.479
▁land	-9.48133
▁song	-9.48214
▁longer	-9.48215
▁memory	-9.48302
la	-9.48353
▁problems	-9.48359
▁implications	-9.48361
▁beyond	-9.48391
lo	-9.48397
▁disease	-9.48447
▁pot	-9.48492
▁typically	-9.48612
▁diet	-9.48673
▁literature	-9.48691
▁death	-9.48711
▁Me	-9.48712
being	-9.48899
▁books	-9.48905
▁properties	-9.48962
▁technical	-9.4915
▁military	-9.49324
▁continued	-9.4933
▁session	-9.49829
▁blend	-9.49877
▁engaged	-9.49893
▁economy	-9.499
▁lack	-9.49965
▁Greek	-9.50082
▁passage	-9.50087
▁fire	-9.50146
▁combined	-9.50172
▁recipes	-9.50244
▁fashion	-9.50255
▁sliced	-9.50281
▁allowed	-9.50346
▁larger	-9.50525
▁commitment	-9.50604
▁Include	-9.50627
▁His	-9.50653
▁invaluable	-9.50754
▁outline	-9.50771
▁thing	-9.50838
▁optimize	-9.50891
▁useful	-9.50932
▁Us	-9.51056
▁four	-9.51082
▁Choose	-9.51107
▁tomatoes	-9.5115
▁policy	-9.51153
▁catch	-9.51263
▁Park	-9.51367
▁patients	-9.51527
▁link	-9.51593
▁storage	-9.51617
▁Set	-9.51682
▁schools	-9.51727
per	-9.51822
▁tree	-9.51902
▁Keep	-9.5199
▁stir	-9.52016
▁Green	-9.52162
▁intricate	-9.52362
▁7	-9.52435
▁ones	-9.52455
▁abilities	-9.52455
▁Ingredients	-9.52518
▁reality	-9.5254
L	-9.527
▁previous	-9.5288
▁output	-9.52896
▁pressure	-9.52959
▁approachable	-9.52974
▁served	-9.52987
▁damage	-9.53006
▁assistance	-9.53055
world	-9.53279
▁classroom	-9.53401
▁30	-9.53576
▁classes	-9.53578
tic	-9.53677
▁forest	-9.53807
▁construction	-9.53937
▁During	-9.54076
▁single	-9.54103
▁theme	-9.54154
▁question	-9.54182
▁Mo	-9.54195
▁testing	-9.54338
▁solution	-9.54356
▁outdoor	-9.5454
▁descriptive	-9.54567
▁error	-9.54792
▁giving	-9.54951
▁Just	-9.54961
0	-9.54979
ous	-9.55046
▁parts	-9.55194
▁desired	-9.5529
ca	-9.55304
▁J	-9.55401
▁expected	-9.5548
▁requirements	-9.55499
▁blue	-9.55579
▁noticed	-9.55601
▁greater	-9.5566
▁specifically	-9.55665
▁experiment	-9.55685
▁filled	-9.55698
▁Research	-9.55709
▁traffic	-9.55755
▁n	-9.5588
▁joint	-9.55884
▁mo	-9.55927
▁PM	-9.56066
▁South	-9.56072
▁religious	-9.56075
▁informative	-9.56077
▁improved	-9.56107
one	-9.56296
▁Le	-9.56301
v	-9.5635
▁creativity	-9.56431
▁drive	-9.56443
▁feelings	-9.56453
llowing	-9.56531
▁International	-9.56535
▁bright	-9.56546
▁speed	-9.5664
▁French	-9.56691
▁Over	-9.56833
▁appealing	-9.56869
▁emissions	-9.56888
▁loved	-9.56898
▁traditions	-9.57013
▁effectiveness	-9.57063
▁attached	-9.57097
▁discovery	-9.57182
▁summer	-9.57252
and	-9.5731
▁gas	-9.57371
▁effect	-9.57436
ize	-9.57516
▁vegetable	-9.57547
▁initial	-9.5756
▁lines	-9.57564
ga	-9.57574
▁sessions	-9.57584
▁imagery	-9.57625
▁trends	-9.57631
▁determine	-9.57646
▁seeking	-9.57764
▁apply	-9.57804
▁sports	-9.57859
▁century	-9.57919
▁Go	-9.57933
▁Check	-9.57982
pe	-9.57999
▁forms	-9.58005
▁reflect	-9.58012
▁agree	-9.58062
▁regularly	-9.58083
pa	-9.58199
▁considering	-9.58248
▁maybe	-9.58281
▁math	-9.5845
▁descriptions	-9.58521
▁obstacles	-9.58552
▁vegetarian	-9.586
▁regions	-9.58708
ma	-9.58896
▁enter	-9.58957
▁stunning	-9.58962
▁experienced	-9.58987
▁table	-9.59019
▁resilience	-9.59029
▁Step	-9.59081
▁Given	-9.59113
▁weeks	-9.59155
▁perform	-9.59163
▁algorithm	-9.59185
▁increasing	-9.59224
▁compelling	-9.59295
▁held	-9.59311
ni	-9.59342
▁painting	-9.59347
▁Instructions	-9.594
▁potatoes	-9.59722
▁bar	-9.59736
▁James	-9.59737
▁integrate	-9.59764
▁house	-9.59998
▁English	-9.6003
▁passion	-9.60068
▁conflict	-9.60124
Based	-9.60156
▁prioritize	-9.60201
▁flowers	-9.60232
▁concept	-9.604
▁heard	-9.60408
▁Each	-9.60412
ner	-9.60481
▁combine	-9.60714
▁general	-9.60837
▁blood	-9.60877
▁complement	-9.60878
ti	-9.60884
▁task	-9.60927
▁entire	-9.60938
▁powers	-9.60945
son	-9.61052
ol	-9.61075
▁considered	-9.61129
▁San	-9.61144
▁description	-9.61224
▁filling	-9.61305
▁attract	-9.61355
▁properly	-9.61376
▁purpose	-9.61473
ty	-9.61498
▁smaller	-9.61546
ated	-9.61626
▁wonder	-9.61677
▁didn	-9.61717
▁voice	-9.61723
▁sky	-9.61725
”	-9.61961
ish	-9.62195
tion	-9.62243
▁talk	-9.6236
▁enable	-9.62364
day	-9.62634
▁Social	-9.6264
▁successfully	-9.62706
▁Ensure	-9.62766
▁Try	-9.62829
▁Start	-9.62877
▁impacts	-9.62917
▁States	-9.62978
ba	-9.62993
▁Would	-9.63038
▁believed	-9.63085
▁sub	-9.63133
▁dressing	-9.63142
▁running	-9.63289
▁investment	-9.63416
▁9	-9.63426
▁recommended	-9.63776
▁models	-9.63841
▁African	-9.63858
▁cultures	-9.63879
ig	-9.63891
▁dough	-9.63924
▁ongoing	-9.63946
▁leave	-9.64113
▁remote	-9.64148
▁cities	-9.64159
▁inspiring	-9.64373
▁Mix	-9.64554
▁coconut	-9.64575
▁places	-9.64602
▁g	-9.64606
▁beans	-9.64653
▁competition	-9.64716
▁struggles	-9.64726
▁playing	-9.64861
▁joy	-9.64865
▁productivity	-9.64898
▁pair	-9.65018
▁contemporary	-9.65105
▁release	-9.65206
▁exchange	-9.65264
▁roasted	-9.65309
▁Emma	-9.65357
▁moving	-9.65426
▁five	-9.6547
▁processes	-9.65522
▁remains	-9.65579
▁beef	-9.65683
▁update	-9.65685
▁incredibly	-9.65779
▁Con	-9.65896
▁slow	-9.66095
▁player	-9.66171
▁participate	-9.66257
▁presence	-9.66387
▁format	-9.66475
▁affordable	-9.66498
▁brainstorm	-9.66518
▁interface	-9.66531
▁menu	-9.66582
▁mission	-9.66603
um	-9.66608
ge	-9.66609
▁office	-9.66626
▁published	-9.66629
▁describe	-9.66632
▁updates	-9.66651
▁courses	-9.66703
▁resource	-9.66793
land	-9.66977
▁decisions	-9.66993
▁basic	-9.6702
▁views	-9.67105
▁growing	-9.6713
▁eggs	-9.67324
▁rise	-9.67349
▁operations	-9.67362
▁Pro	-9.67408
▁animal	-9.67527
▁tablespoon	-9.67528
min	-9.67591
▁photos	-9.67622
▁cold	-9.67656
▁kids	-9.67667
▁device	-9.67677
▁motivated	-9.67724
▁tracking	-9.67878
▁partner	-9.67915
▁Jordan	-9.6794
▁inside	-9.67958
▁potentially	-9.6799
▁t	-9.68007
▁Jack	-9.68011
care	-9.68077
▁remind	-9.68244
▁Develop	-9.68247
▁Health	-9.68306
end	-9.68314
▁peace	-9.68402
▁join	-9.68437
ful	-9.6851
▁restaurants	-9.68521
▁objects	-9.68565
ization	-9.68579
ha	-9.68649
▁York	-9.68781
▁slightly	-9.68827
▁nuts	-9.68907
▁Serve	-9.68933
▁British	-9.68962
▁peppers	-9.68982
▁monitor	-9.68998
▁landscape	-9.69136
▁V	-9.69178
▁rather	-9.69186
▁meals	-9.69325
▁myself	-9.69403
▁12	-9.69472
▁North	-9.69556
▁walk	-9.69735
ating	-9.6984
os	-9.69863
▁apps	-9.70152
▁poetry	-9.7019
▁shown	-9.70253
▁colleagues	-9.7028
▁impacted	-9.70381
▁worth	-9.70421
▁woman	-9.70438
j	-9.70519
▁subject	-9.70636
▁dis	-9.707
4	-9.70801
▁plot	-9.7084
▁went	-9.70852
▁mood	-9.70865
▁struggling	-9.70934
▁staff	-9.70936
ley	-9.71012
ph	-9.71042
▁national	-9.71068
life	-9.71095
▁contributions	-9.71109
▁ocean	-9.71119
▁cancer	-9.71142
▁layer	-9.71166
▁workshops	-9.71239
un	-9.71332
at	-9.71365
▁symbol	-9.71379
▁i	-9.71405
▁collaborative	-9.71423
▁gluten	-9.71423
▁glass	-9.71456
of	-9.71504
▁stop	-9.71542
▁facing	-9.71611
▁dedicated	-9.71845
▁cases	-9.71942
side	-9.71948
▁couldn	-9.71984
▁fast	-9.71985
sh	-9.72011
▁dialogue	-9.72028
▁super	-9.72031
▁active	-9.72096
▁yoga	-9.72142
▁fruits	-9.72218
▁wood	-9.72243
▁Na	-9.72247
5	-9.72273
▁path	-9.72297
▁heavy	-9.72383
▁fight	-9.72388
les	-9.72414
▁capture	-9.72521
ut	-9.7271
▁brain	-9.72721
▁improvement	-9.72818
▁clothing	-9.72884
▁Center	-9.72908
▁spot	-9.72927
▁buildings	-9.72929
▁initiative	-9.72955
▁demand	-9.72984
▁India	-9.73145
▁Indian	-9.732
Y	-9.7321
▁creation	-9.73217
▁urban	-9.73551
▁original	-9.73561
▁cups	-9.73629
▁price	-9.73644
▁pasta	-9.73689
▁electric	-9.73718
ac	-9.73723
▁Thursday	-9.73943
▁notes	-9.7395
▁rock	-9.73978
▁deeply	-9.74024
▁onto	-9.74082
▁Jamie	-9.74098
▁half	-9.74099
▁professionals	-9.74136
▁breath	-9.74148
▁organic	-9.74293
▁mother	-9.74325
▁lighting	-9.74391
▁front	-9.74399
://	-9.74487
▁flow	-9.74599
▁street	-9.74735
▁creamy	-9.74737
▁snack	-9.74767
▁festival	-9.74886
▁boost	-9.75087
▁fall	-9.75369
▁upon	-9.75472
▁Friday	-9.75502
ized	-9.75525
▁impressive	-9.75542
ad	-9.75745
▁heritage	-9.75855
▁statistics	-9.75855
▁High	-9.75902
▁China	-9.76061
op	-9.76092
▁computer	-9.76122
▁workout	-9.76127
▁requires	-9.76147
▁ultimately	-9.76157
▁Al	-9.7633
▁Science	-9.76363
▁discussed	-9.76376
▁consistent	-9.76377
▁pay	-9.76574
▁met	-9.76644
▁connections	-9.76654
▁innovation	-9.76696
▁expand	-9.76704
▁X	-9.76805
ology	-9.76812
▁notable	-9.77074
▁Liam	-9.7709
▁confidence	-9.77153
▁meaningful	-9.77226
▁dedication	-9.77284
▁directly	-9.77338
▁feet	-9.77449
▁tour	-9.77517
▁educators	-9.77637
ier	-9.77678
▁client	-9.77708
▁supply	-9.77725
▁thanks	-9.77773
▁deal	-9.77781
▁memories	-9.77805
▁answer	-9.77853
▁private	-9.7793
▁compared	-9.78107
▁structures	-9.78113
▁brought	-9.78167
▁though	-9.78193
▁supporting	-9.78276
▁gift	-9.78289
▁situations	-9.78297
▁push	-9.78351
▁participants	-9.78406
▁brief	-9.78415
▁homemade	-9.7854
▁Facebook	-9.78612
▁distance	-9.78675
▁ideal	-9.78748
▁measure	-9.78763
▁managing	-9.78777
▁inspiration	-9.78784
con	-9.78877
▁screen	-9.78884
▁pop	-9.78929
In	-9.79145
▁caused	-9.7916
ck	-9.79169
▁movements	-9.79171
lin	-9.7918
▁express	-9.79214
▁Mark	-9.79278
log	-9.79282
▁avocado	-9.79303
▁tension	-9.79366
▁instance	-9.79367
use	-9.79369
▁Pa	-9.79432
▁advertising	-9.79466
▁surrounding	-9.79501
▁member	-9.79538
▁realized	-9.79764
▁tried	-9.79768
▁encountered	-9.79774
▁risks	-9.79832
▁birds	-9.79893
▁diced	-9.79894
▁unit	-9.79969
▁struggle	-9.80157
io	-9.80268
▁primary	-9.80287
▁extract	-9.80292
}	-9.80344
▁articles	-9.80367
▁changing	-9.80384
▁vinegar	-9.80617
▁doesn	-9.80671
▁variations	-9.80744
▁ahead	-9.8077
▁memorable	-9.80783
▁Roman	-9.80846
▁completed	-9.80846
▁accurate	-9.80873
▁suitable	-9.80959
▁cognitive	-9.81031
▁bold	-9.81137
▁either	-9.81156
U	-9.81232
▁tender	-9.81233
▁vibrant	-9.81364
▁pro	-9.81623
▁library	-9.81697
▁bell	-9.81703
▁cross	-9.81752
▁comfort	-9.81804
8	-9.81821
▁couple	-9.81854
▁settings	-9.81924
▁advance	-9.82057
▁experts	-9.82071
▁loop	-9.82084
▁Bo	-9.82156
▁contributed	-9.82239
▁From	-9.82244
▁Avoid	-9.82368
▁Cook	-9.82483
▁Ka	-9.82502
▁unexpected	-9.82537
▁police	-9.82537
▁invite	-9.82585
▁Bar	-9.82602
▁paint	-9.8264
▁Samantha	-9.82663
▁middle	-9.82706
▁thank	-9.8271
▁Museum	-9.82807
ow	-9.82819
making	-9.83028
▁Chinese	-9.83043
▁legal	-9.83093
▁road	-9.83093
▁statement	-9.8321
▁tsp	-9.83215
▁seeing	-9.8329
ho	-9.83321
▁According	-9.83383
▁Art	-9.83444
word	-9.8349
▁Earth	-9.83516
▁becoming	-9.83641
▁continues	-9.83811
▁chili	-9.83857
▁integer	-9.83936
▁farmers	-9.83949
▁contain	-9.84074
▁yogurt	-9.84108
▁advancements	-9.84123
▁museum	-9.84131
&	-9.84277
▁condition	-9.84311
led	-9.84395
▁implementation	-9.84445
let	-9.84472
▁prefer	-9.84491
▁foods	-9.84516
▁algorithms	-9.84701
▁responsible	-9.84709
▁delivery	-9.84726
▁movie	-9.84875
▁beach	-9.84901
▁consequences	-9.85054
▁1:	-9.85101
▁engineering	-9.85287
▁request	-9.85338
▁busy	-9.85349
▁contrast	-9.85412
▁teams	-9.85441
▁Robert	-9.85445
▁pattern	-9.85478
▁leadership	-9.85533
▁diseases	-9.85536
▁integration	-9.85574
list	-9.85602
▁spicy	-9.85617
▁beliefs	-9.85655
▁Sa	-9.85675
▁workers	-9.85703
▁Maria	-9.85718
▁herself	-9.85736
▁exploration	-9.85747
▁perspectives	-9.85764
▁breathing	-9.85775
▁agriculture	-9.85835
▁offered	-9.85844
▁Through	-9.85956
▁usage	-9.8596
▁stores	-9.86044
▁Japanese	-9.86108
▁beneficial	-9.8614
▁El	-9.86161
▁Education	-9.86165
ran	-9.86214
izing	-9.86222
▁hiking	-9.86271
ial	-9.86313
▁club	-9.86337
▁late	-9.86358
▁below	-9.86492
▁researchers	-9.8654
pi	-9.86555
▁vision	-9.86623
▁custom	-9.86637
ka	-9.86796
ors	-9.86814
que	-9.86816
▁employee	-9.86868
▁adapt	-9.86904
▁total	-9.86935
▁European	-9.87022
▁contains	-9.87085
▁driving	-9.87194
▁causing	-9.87238
▁Ma	-9.87262
▁Day	-9.87275
▁West	-9.87289
▁rights	-9.87404
▁universe	-9.87636
sa	-9.87646
ke	-9.87698
▁achieving	-9.87769
▁attack	-9.87824
▁party	-9.87839
▁note	-9.87872
▁posts	-9.87906
▁demonstrate	-9.88027
hi	-9.88032
▁dried	-9.88039
▁raise	-9.88057
X	-9.88095
▁cleaning	-9.88123
▁aspect	-9.88178
▁satisfaction	-9.88259
▁la	-9.88337
▁Place	-9.88482
▁perfectly	-9.88559
▁named	-9.88579
▁golden	-9.88584
da	-9.88659
▁organized	-9.88786
▁fabric	-9.8882
▁US	-9.88893
▁figure	-9.88909
▁gentle	-9.88931
▁interact	-9.88963
▁speaker	-9.89026
▁16	-9.89034
dy	-9.89072
▁2:	-9.89109
▁channels	-9.89141
▁enthusiasm	-9.892
▁hidden	-9.892
▁principles	-9.8924
▁Ga	-9.89283
▁eating	-9.89284
▁revenue	-9.8929
▁reported	-9.89377
▁River	-9.89385
▁proper	-9.8944
▁hit	-9.89514
▁onions	-9.89534
▁count	-9.89564
▁Europe	-9.89615
▁First	-9.8968
▁Black	-9.8971
▁highlighting	-9.89936
▁spiritual	-9.90003
▁force	-9.90014
▁pizza	-9.90059
▁sites	-9.90087
▁island	-9.90145
▁brands	-9.90161
▁metal	-9.90232
▁broth	-9.90232
▁wear	-9.90243
ning	-9.90329
▁usually	-9.90331
▁analytics	-9.90424
▁select	-9.90435
▁teachers	-9.90485
*	-9.90493
▁Instagram	-9.90652
▁drink	-9.90697
▁songs	-9.90757
▁x	-9.90795
▁calm	-9.90807
▁wildlife	-9.90839
▁dynamic	-9.90844
▁despite	-9.90926
▁database	-9.90973
▁assist	-9.90982
ions	-9.91036
ft	-9.91051
▁watch	-9.91113
▁keeping	-9.91129
ard	-9.9116
▁multi	-9.91205
▁former	-9.91219
▁alone	-9.91255
▁serves	-9.91312
bu	-9.91326
▁relaxation	-9.91396
▁represent	-9.91429
▁leaving	-9.91431
")	-9.91447
▁payment	-9.91478
od	-9.91526
▁almond	-9.91554
▁shopping	-9.91574
▁expect	-9.91587
▁star	-9.91687
▁itself	-9.91827
▁anyone	-9.91828
▁adventure	-9.91834
terdisciplinary	-9.91865
▁establish	-9.91914
▁college	-9.91939
▁standards	-9.91953
▁document	-9.91973
▁hotel	-9.92006
▁colorful	-9.92018
▁integrating	-9.92032
▁websites	-9.92222
▁property	-9.92224
▁num	-9.92415
▁artist	-9.92422
▁interactions	-9.92426
▁population	-9.92545
ak	-9.92647
▁reminder	-9.92657
di	-9.92726
▁programming	-9.92736
▁monitoring	-9.92874
▁container	-9.92882
▁Sam	-9.92926
▁expresses	-9.92965
▁cells	-9.93155
▁Good	-9.93191
▁picture	-9.93259
▁transport	-9.93296
▁attend	-9.93348
like	-9.9347
▁numerous	-9.93478
▁illustrate	-9.93525
ver	-9.93571
▁poems	-9.93613
▁snow	-9.93622
▁seek	-9.93656
▁intense	-9.93668
▁discussions	-9.93714
▁maintenance	-9.9374
▁skill	-9.93769
▁card	-9.93783
▁bird	-9.93801
▁metrics	-9.93831
▁simply	-9.93902
▁crust	-9.93917
ite	-9.93921
▁spent	-9.93956
▁Instead	-9.93957
▁aim	-9.93975
▁rewarding	-9.93991
▁Red	-9.9402
▁14	-9.94025
der	-9.94028
▁timeline	-9.94045
▁guests	-9.94105
▁London	-9.94186
▁handling	-9.94215
▁Lily	-9.94292
▁storytelling	-9.94328
back	-9.94369
▁accuracy	-9.94375
▁processing	-9.944
▁status	-9.94471
▁selection	-9.94503
▁files	-9.94557
▁mixed	-9.94607
ot	-9.94623
▁chain	-9.94676
▁existing	-9.94715
▁Or	-9.94761
▁reviews	-9.94826
▁object	-9.94835
▁commonly	-9.94873
▁differences	-9.94945
▁explores	-9.95064
▁six	-9.95099
nd	-9.95122
▁race	-9.95197
▁willing	-9.9521
▁appearance	-9.95238
ru	-9.95329
▁record	-9.95336
▁stronger	-9.95385
▁connected	-9.95394
▁America	-9.95396
▁smart	-9.95422
ex	-9.95457
▁en	-9.95486
▁featuring	-9.95664
▁adds	-9.95678
\	-9.95808
▁presented	-9.95834
▁spaces	-9.95849
▁toppings	-9.95898
int	-9.95951
▁plenty	-9.96001
▁box	-9.96112
▁fair	-9.9614
▁egg	-9.962
▁tablespoons	-9.96211
▁informed	-9.9622
▁server	-9.96272
▁immediately	-9.96274
ster	-9.96343
▁profound	-9.96361
é	-9.96393
▁winter	-9.96447
▁environments	-9.96497
▁law	-9.96515
▁guided	-9.96543
▁seem	-9.96584
▁Remove	-9.96605
▁intelligence	-9.96678
▁remain	-9.96702
ical	-9.96771
▁Institute	-9.96777
▁loyalty	-9.96778
▁resistance	-9.96778
▁aims	-9.96821
lu	-9.96821
J	-9.96841
▁Japan	-9.96872
▁reliable	-9.96873
▁guest	-9.96909
ability	-9.96945
au	-9.96966
▁fiber	-9.96966
▁tomato	-9.96979
▁Design	-9.97089
▁State	-9.9709
Your	-9.97113
▁breakfast	-9.97117
▁leaders	-9.97181
▁almost	-9.97215
▁listening	-9.97237
▁planet	-9.97282
▁nearby	-9.97286
▁overview	-9.97301
▁prepared	-9.9737
▁shapes	-9.97505
▁seasoning	-9.97529
ip	-9.97563
▁sort	-9.97598
▁skillet	-9.97666
▁seemed	-9.97703
▁recognition	-9.97752
ping	-9.97891
▁lifestyle	-9.97907
▁Ra	-9.98033
▁cake	-9.98305
▁bottom	-9.98308
▁messages	-9.98334
▁teacher	-9.98387
▁gold	-9.98549
▁analyzing	-9.98688
▁minced	-9.98689
▁waves	-9.98765
▁nutrition	-9.98811
▁evolution	-9.98823
▁consumption	-9.98837
vo	-9.9884
▁walking	-9.98889
▁stars	-9.98919
▁act	-9.98938
▁breaks	-9.98987
▁sign	-9.99122
▁magical	-9.99222
▁protection	-9.9928
ence	-9.99293
▁photo	-9.99442
if	-9.99507
bo	-9.99539
▁bike	-9.996
▁earlier	-9.99784
▁honor	-9.99972
▁Cut	-9.99975
▁fact	-9.99997
▁involve	-10.0006
▁cell	-10.0009
▁calendar	-10.0013
▁May	-10.0014
▁Like	-10.0021
▁weekend	-10.0023
▁pet	-10.0026
ure	-10.0027
▁incident	-10.0034
po	-10.004
▁stage	-10.0042
▁possibility	-10.0044
▁substitute	-10.0045
Re	-10.005
▁journal	-10.0054
▁musical	-10.0064
Enter	-10.0073
▁sent	-10.0074
▁Practice	-10.0084
▁solve	-10.0093
▁separate	-10.0097
▁Man	-10.0102
▁Generate	-10.0104
▁largest	-10.0109
▁wall	-10.0112
▁plays	-10.0118
▁House	-10.012
▁summarize	-10.013
▁chips	-10.0133
▁excitement	-10.0135
▁committed	-10.0135
▁God	-10.0143
▁twist	-10.0146
▁band	-10.0148
em	-10.0155
▁staying	-10.0175
▁crispy	-10.0176
num	-10.0185
▁17	-10.0189
▁tough	-10.019
▁dream	-10.019
▁Any	-10.0191
▁lime	-10.0197
den	-10.0201
▁sets	-10.0201
▁conflicts	-10.0203
▁explanation	-10.0205
▁Water	-10.023
▁packaging	-10.0232
▁reduced	-10.0239
▁Amazon	-10.0242
▁complexity	-10.0243
mb	-10.0246
▁survive	-10.0253
▁dessert	-10.0283
▁eat	-10.0283
▁Ro	-10.0285
str	-10.0291
▁returns	-10.0295
▁dinner	-10.0299
▁win	-10.0316
▁API	-10.0317
style	-10.0321
▁flavorful	-10.0323
board	-10.0324
▁aid	-10.0325
▁click	-10.0325
▁residents	-10.0332
▁expert	-10.0335
tro	-10.0341
▁sides	-10.0358
▁vehicles	-10.0358
▁practicing	-10.0377
▁scent	-10.0381
▁calculate	-10.0411
▁Car	-10.0412
▁pie	-10.0417
▁studying	-10.0423
▁beginning	-10.0424
▁represents	-10.0431
▁incorporated	-10.0437
▁resolution	-10.0439
▁immersive	-10.0439
▁expression	-10.0441
▁physics	-10.0451
▁carrots	-10.0468
▁shop	-10.0468
va	-10.0473
▁transfer	-10.0475
▁Hu	-10.0478
▁/	-10.0484
▁rare	-10.0488
▁spirit	-10.0489
▁appreciation	-10.0508
▁marine	-10.0508
▁symptoms	-10.051
ang	-10.0516
▁pm	-10.052
▁broader	-10.0532
ise	-10.0534
www	-10.0535
▁justice	-10.0538
▁floor	-10.0542
▁era	-10.0545
▁button	-10.0546
▁**	-10.0553
▁begin	-10.0558
▁becomes	-10.0563
▁habits	-10.0563
▁peaceful	-10.0564
▁vanilla	-10.0566
▁depression	-10.0566
▁creates	-10.0568
▁Africa	-10.0568
▁press	-10.0572
▁pages	-10.0578
▁attending	-10.0583
▁tours	-10.0586
Education	-10.0588
▁approaches	-10.0589
▁addressing	-10.059
▁wider	-10.059
▁pollution	-10.0603
▁thick	-10.0609
name	-10.0614
▁TV	-10.0616
▁strengthen	-10.062
▁spend	-10.0629
▁reduction	-10.0641
7	-10.0642
▁graphics	-10.0645
00	-10.0651
▁font	-10.0652
▁Other	-10.0655
string	-10.0659
▁UK	-10.066
▁luck	-10.0662
▁anti	-10.0663
▁components	-10.0664
▁sometimes	-10.0664
▁errors	-10.0664
▁court	-10.0678
▁rely	-10.0679
▁interview	-10.068
▁battle	-10.0686
▁extensive	-10.0687
▁father	-10.0689
▁previously	-10.0691
▁enthusiastic	-10.0696
▁sheet	-10.07
▁exhibit	-10.07
6	-10.07
ally	-10.0701
▁followers	-10.0701
act	-10.0709
▁block	-10.072
▁valid	-10.0721
▁sit	-10.0727
▁Jenna	-10.0727
▁Ca	-10.0729
▁Salt	-10.0736
▁tbsp	-10.0737
▁foundation	-10.0743
▁snacks	-10.0747
▁escape	-10.0749
▁gave	-10.0754
▁Pre	-10.076
ko	-10.0768
▁combin	-10.0776
▁tofu	-10.0781
way	-10.0784
▁magic	-10.0804
▁carefully	-10.0807
▁package	-10.0821
input	-10.0835
person	-10.0842
▁edge	-10.0847
▁shaping	-10.0851
▁Chorus	-10.0858
light	-10.0863
▁sizes	-10.0864
▁influencers	-10.0865
▁manufacturing	-10.0868
▁sand	-10.087
nt	-10.0878
▁conducted	-10.0879
▁vary	-10.0882
▁rain	-10.0882
],	-10.0886
▁focuses	-10.0891
▁finally	-10.0897
▁Share	-10.0903
▁covered	-10.0903
▁apart	-10.0909
▁conduct	-10.0912
▁engine	-10.0912
()`	-10.0914
▁Vi	-10.0915
▁launch	-10.0917
▁speak	-10.0923
▁Python	-10.0929
▁reports	-10.0931
▁kitchen	-10.095
▁11	-10.095
ap	-10.0957
▁sector	-10.0963
▁instruments	-10.0967
▁efficiently	-10.0976
▁filter	-10.0982
▁respect	-10.0983
▁empty	-10.0984
▁childhood	-10.0984
▁Pi	-10.0984
▁scientists	-10.0997
mi	-10.1009
▁confirms	-10.1024
▁Focus	-10.1039
▁direct	-10.1044
can	-10.105
▁extend	-10.105
▁covers	-10.1056
related	-10.1058
▁himself	-10.1062
unt	-10.1066
our	-10.1069
▁personality	-10.1072
▁goes	-10.1074
ron	-10.1077
▁Italian	-10.1095
▁Po	-10.1098
za	-10.1106
▁fuel	-10.1107
▁pricing	-10.1117
▁detect	-10.1125
▁audio	-10.1129
▁refreshing	-10.1129
▁limit	-10.1134
=	-10.1136
▁standard	-10.1136
▁Jane	-10.1139
▁guidelines	-10.114
▁mushrooms	-10.1144
▁teach	-10.1161
▁fans	-10.1162
▁syrup	-10.1168
▁bio	-10.117
▁men	-10.1181
▁panel	-10.1189
▁introduction	-10.119
ah	-10.1193
▁river	-10.1199
▁speaking	-10.1199
▁prompt	-10.1204
date	-10.1217
qui	-10.1229
▁Se	-10.1241
▁variable	-10.1243
▁income	-10.1243
▁transition	-10.1245
▁<<	-10.1248
▁mean	-10.125
▁double	-10.1251
▁cannot	-10.1252
▁visiting	-10.1256
▁emphasizes	-10.1268
▁reviewed	-10.1269
▁mixing	-10.1271
▁Apple	-10.1272
▁quiet	-10.1275
▁gather	-10.1277
▁elaborate	-10.1278
▁walls	-10.128
▁shift	-10.1284
▁apple	-10.1287
▁Z	-10.1288
he	-10.1296
▁impressed	-10.1296
▁forget	-10.1301
▁inform	-10.1302
▁dietary	-10.1311
▁faster	-10.1311
q	-10.1329
▁tourism	-10.1336
▁applied	-10.1338
▁ease	-10.1339
▁potato	-10.134
▁recovery	-10.1342
om	-10.1344
▁followed	-10.1346
10	-10.1349
work	-10.135
ward	-10.1351
▁established	-10.1353
▁partnership	-10.1354
▁grilled	-10.1358
▁soul	-10.1369
▁compare	-10.1374
ship	-10.1378
▁Incorporate	-10.1384
▁cinnamon	-10.1384
▁stock	-10.1386
▁Q	-10.139
▁dangerous	-10.1402
▁expectations	-10.1414
▁markets	-10.1416
▁Di	-10.1428
▁flexible	-10.1436
▁leads	-10.1439
▁eventually	-10.1443
▁presenting	-10.145
▁festivals	-10.1452
▁Ha	-10.1456
▁whisk	-10.1465
▁Per	-10.1466
▁Journal	-10.1468
▁deliver	-10.1471
▁frame	-10.1487
▁train	-10.1515
▁brush	-10.1516
▁title	-10.1517
▁empathy	-10.1518
▁quinoa	-10.1524
ler	-10.1524
▁investigation	-10.1529
▁prices	-10.1536
▁profile	-10.1538
▁performances	-10.1545
▁closer	-10.1547
ub	-10.1548
▁advantage	-10.1548
solving	-10.1562
▁hour	-10.1566
▁alive	-10.1567
▁En	-10.1572
▁evaluate	-10.1578
▁Mar	-10.158
▁customize	-10.1581
▁pandemic	-10.1582
▁average	-10.1595
▁foster	-10.1596
▁ex	-10.1597
▁hike	-10.1612
▁password	-10.1613
▁cloud	-10.1614
▁credit	-10.1617
▁ball	-10.1623
cl	-10.1624
▁targeted	-10.1624
▁suggested	-10.1634
▁April	-10.1635
▁generation	-10.1636
▁roles	-10.1638
▁maximum	-10.1641
▁realistic	-10.1643
▁spinach	-10.1647
▁soy	-10.1649
▁rural	-10.1653
▁sight	-10.1657
▁camera	-10.166
▁Ar	-10.167
▁def	-10.1674
▁remarkable	-10.1677
▁direction	-10.1677
▁Get	-10.1678
▁noise	-10.1686
▁functions	-10.1691
▁described	-10.1692
▁genetic	-10.1694
▁internal	-10.1701
▁cookies	-10.1705
▁Furthermore	-10.1706
▁literary	-10.1724
ina	-10.173
ped	-10.1731
che	-10.1736
▁figures	-10.1739
▁nutritional	-10.1739
▁putting	-10.1746
ide	-10.175
▁hoping	-10.1756
▁evolved	-10.1758
▁attendees	-10.176
▁savory	-10.1762
▁department	-10.1784
▁goods	-10.1788
▁proposed	-10.1789
▁evenly	-10.1792
▁j	-10.1794
ee	-10.1802
▁Li	-10.1802
▁passed	-10.1804
▁improvements	-10.181
▁treat	-10.1811
▁distribution	-10.1814
▁Lu	-10.1817
▁visuals	-10.182
▁volume	-10.1822
▁arts	-10.1825
ative	-10.1834
▁d	-10.1843
Tech	-10.1848
▁bag	-10.1849
▁Marketing	-10.1852
▁%	-10.1857
▁r	-10.1864
▁expenses	-10.1867
▁destination	-10.1869
wood	-10.1869
net	-10.1872
gen	-10.1877
▁100	-10.188
▁generated	-10.189
▁thin	-10.1897
▁closely	-10.1905
▁smoothie	-10.1909
▁inner	-10.1927
▁dip	-10.1927
▁yellow	-10.1929
▁ride	-10.193
ins	-10.1937
ana	-10.194
▁vast	-10.194
▁proud	-10.1942
▁frequently	-10.1951
▁humans	-10.1952
▁Cheers	-10.1955
▁preparing	-10.1959
▁Wi	-10.1963
▁reflects	-10.1968
▁partnerships	-10.1968
▁fine	-10.1968
▁feels	-10.1975
my	-10.1978
▁instruction	-10.1979
▁changed	-10.1982
30	-10.1986
ff	-10.1991
▁initially	-10.1992
▁appeal	-10.2018
▁central	-10.202
▁survival	-10.2021
▁widely	-10.2026
▁spending	-10.2029
▁choices	-10.2035
▁managed	-10.2042
gu	-10.2046
▁welcome	-10.205
▁sprinkle	-10.2058
▁released	-10.2059
▁Encourage	-10.2064
▁President	-10.207
ud	-10.2073
▁respond	-10.2079
▁System	-10.2084
▁podcast	-10.2088
file	-10.2088
▁coaching	-10.209
▁impactful	-10.2094
▁university	-10.2101
▁lunch	-10.2101
▁forces	-10.2106
mon	-10.2106
▁footprint	-10.2107
▁storm	-10.211
▁generations	-10.2111
▁Sea	-10.2111
▁capabilities	-10.2113
▁rewards	-10.2113
▁theory	-10.2115
▁Empire	-10.2119
▁Ne	-10.2123
▁heavily	-10.2132
▁seafood	-10.2132
▁musicians	-10.2132
▁mountain	-10.2142
▁preparation	-10.2144
▁wonderful	-10.2144
▁haven	-10.2147
▁Ho	-10.2149
tra	-10.215
▁California	-10.2151
▁Carter	-10.2152
▁ecosystems	-10.2163
▁sp	-10.2171
▁crops	-10.218
▁drug	-10.218
▁discover	-10.218
▁facilities	-10.2188
▁Time	-10.2197
▁Work	-10.2201
▁orange	-10.2202
▁agrees	-10.2208
▁insight	-10.2209
▁competitive	-10.221
▁basil	-10.2213
▁slices	-10.2229
▁logo	-10.2231
▁returned	-10.2238
▁argument	-10.224
▁aimed	-10.2242
▁workplace	-10.2242
▁sections	-10.2251
▁tend	-10.2255
▁draw	-10.2256
▁via	-10.2259
▁speech	-10.2265
▁East	-10.2269
▁Ta	-10.2274
▁Tri	-10.2276
qu	-10.2289
▁choosing	-10.2295
▁messaging	-10.2295
▁ch	-10.2304
▁square	-10.2307
▁Offer	-10.2319
▁stability	-10.232
20	-10.2328
▁missing	-10.2339
▁actually	-10.2342
▁listen	-10.235
▁recognize	-10.235
tor	-10.2356
▁console	-10.2358
▁equal	-10.2358
▁insightful	-10.2359
▁earth	-10.2359
▁al	-10.2366
▁historic	-10.2368
ists	-10.237
▁experiencing	-10.2371
▁🌟	-10.2371
Research	-10.2373
ible	-10.2374
▁Spanish	-10.2377
▁wrap	-10.2382
▁leader	-10.2382
▁convenient	-10.239
▁capable	-10.2403
▁suit	-10.2414
ade	-10.2419
▁populations	-10.2428
▁England	-10.2428
▁trail	-10.2434
▁disorders	-10.2436
▁electricity	-10.2443
▁nothing	-10.2448
▁Mi	-10.2449
▁25	-10.2453
▁languages	-10.2456
▁VR	-10.2461
▁dreams	-10.2461
▁medicine	-10.2466
▁door	-10.247
▁baby	-10.2473
gi	-10.2485
ations	-10.2489
▁celebrate	-10.2492
▁expressed	-10.2492
▁Did	-10.2492
▁integrated	-10.2497
▁Energy	-10.2504
▁concerned	-10.2516
▁muscle	-10.2519
▁produced	-10.2519
▁flight	-10.252
▁Lo	-10.2522
▁tech	-10.2522
▁taught	-10.2525
ual	-10.2529
▁struggled	-10.253
red	-10.2532
▁artistic	-10.2532
▁firm	-10.2537
▁root	-10.2539
▁spice	-10.2542
▁History	-10.2548
▁reached	-10.2548
▁sample	-10.2559
▁vital	-10.2562
▁jewelry	-10.2564
▁survey	-10.2565
('	-10.2566
▁dog	-10.257
▁grew	-10.257
▁perhaps	-10.2576
▁constantly	-10.2577
▁encounter	-10.2581
mp	-10.2585
▁slowly	-10.259
▁lecture	-10.2592
▁supportive	-10.2604
▁Find	-10.2607
▁Twitter	-10.2609
▁harsh	-10.2609
we	-10.2622
▁finish	-10.2626
ki	-10.2627
▁fan	-10.2628
▁formula	-10.2638
▁stick	-10.2638
wi	-10.2639
▁sharp	-10.2654
▁accordingly	-10.2663
▁height	-10.2666
ator	-10.2674
known	-10.2679
▁wellness	-10.2681
▁cutting	-10.2683
▁tactics	-10.2688
▁foreign	-10.269
ring	-10.2696
▁turned	-10.2697
▁album	-10.2699
ber	-10.2705
▁cr	-10.2706
▁promising	-10.2707
▁motion	-10.2707
▁iconic	-10.2722
▁functionality	-10.2728
▁flexibility	-10.2733
down	-10.2735
▁calls	-10.2737
▁Answer	-10.274
▁organize	-10.274
▁tight	-10.2741
▁electronic	-10.2742
▁tailored	-10.2745
tu	-10.2745
▁wild	-10.2746
▁determination	-10.2747
▁homes	-10.2748
▁learners	-10.2755
▁aware	-10.2761
▁veggies	-10.2762
▁incentives	-10.2773
▁host	-10.2781
▁introduced	-10.2784
▁scheme	-10.2786
▁constant	-10.2786
top	-10.2795
▁Sha	-10.2798
▁Ba	-10.2799
▁embrace	-10.2799
▁import	-10.2804
▁encouraging	-10.2806
▁satisfying	-10.2807
▁gradually	-10.2807
="	-10.281
▁furniture	-10.2813
▁invest	-10.2815
▁tax	-10.2816
▁pick	-10.282
▁France	-10.2833
▁centers	-10.2835
▁treatments	-10.2841
▁Open	-10.2842
▁achieved	-10.2847
▁attended	-10.2849
▁chickpeas	-10.285
▁institutions	-10.2851
▁cycle	-10.2859
ium	-10.2864
▁desert	-10.2866
▁secret	-10.2868
▁brainstorming	-10.2868
ice	-10.2869
▁mis	-10.287
▁showing	-10.2881
▁identifying	-10.2881
▁dress	-10.2886
▁Tom	-10.289
▁mechanisms	-10.2891
▁hospital	-10.29
over	-10.2901
▁healthier	-10.2901
▁Cha	-10.2904
▁caught	-10.2907
▁spring	-10.2907
▁nutrients	-10.2909
▁missed	-10.2919
▁map	-10.292
▁extreme	-10.2921
▁stone	-10.2928
▁states	-10.2929
▁Paris	-10.293
▁integers	-10.2931
▁partners	-10.2941
▁solid	-10.2941
tin	-10.2946
▁convenience	-10.2947
▁Verse	-10.2947
▁documents	-10.2949
▁claims	-10.2958
▁Preheat	-10.296
sha	-10.2962
▁classical	-10.2968
▁ads	-10.297
▁passionate	-10.2975
▁lab	-10.2975
▁manner	-10.2975
get	-10.2984
▁bed	-10.2984
▁Saturday	-10.2987
▁internet	-10.2987
ities	-10.2988
▁Home	-10.2992
▁holding	-10.2992
▁mystery	-10.2994
▁consistency	-10.2994
▁ago	-10.2998
▁bringing	-10.2999
▁remaining	-10.3
▁emphasizing	-10.3001
▁friendship	-10.3002
▁symbols	-10.3003
▁random	-10.3004
▁drinks	-10.3019
▁sell	-10.3027
▁gained	-10.3029
▁Top	-10.303
port	-10.3031
▁motivation	-10.3032
▁Not	-10.3037
▁ginger	-10.3042
▁emergency	-10.3048
▁index	-10.3064
▁severe	-10.3068
▁Perhaps	-10.3069
▁investing	-10.3069
▁sequence	-10.3069
▁jazz	-10.3075
▁navigation	-10.3075
▁attractions	-10.3076
▁commercial	-10.3096
▁Plan	-10.3101
▁grill	-10.3102
▁sending	-10.3105
▁literacy	-10.311
▁balanced	-10.3114
▁convert	-10.3115
▁encourages	-10.3118
▁Pour	-10.312
▁appreciated	-10.3121
▁injuries	-10.3123
▁kindness	-10.3132
▁prey	-10.3134
▁Then	-10.3135
▁reputation	-10.3137
▁letters	-10.3145
{	-10.3148
Science	-10.315
▁holiday	-10.315
ja	-10.3152
▁cat	-10.3158
▁names	-10.317
▁supported	-10.3173
▁attacks	-10.3174
ns	-10.3175
▁plate	-10.3186
▁beginners	-10.3187
▁addiction	-10.3188
▁Community	-10.3191
si	-10.3195
▁Middle	-10.3199
arr	-10.32
▁switch	-10.32
▁wasn	-10.3204
▁requests	-10.3205
▁Olivia	-10.3213
▁di	-10.3214
▁po	-10.3216
▁k	-10.3216
▁Data	-10.3219
▁shrimp	-10.322
—	-10.3221
▁==	-10.3222
▁afraid	-10.3234
ai	-10.3234
▁collect	-10.3234
▁jobs	-10.3238
▁grab	-10.3241
▁tradition	-10.3243
▁exposure	-10.3247
▁discoveries	-10.3248
▁shot	-10.3254
men	-10.3254
▁moisture	-10.3255
▁pork	-10.3255
▁50	-10.3257
▁injury	-10.3268
▁corn	-10.3273
▁follows	-10.3276
▁Users	-10.3287
▁Love	-10.3287
▁forever	-10.3293
▁murder	-10.3296
▁carry	-10.3302
▁indigenous	-10.3303
▁organizing	-10.3303
▁finished	-10.3307
▁surroundings	-10.3307
▁Roasted	-10.3318
▁parsley	-10.3324
▁cozy	-10.3325
▁frozen	-10.3331
▁transform	-10.3333
▁scenes	-10.3341
$	-10.3342
▁scale	-10.3345
▁enjoyable	-10.3346
▁opening	-10.3349
▁romantic	-10.3352
▁https	-10.3352
▁grand	-10.3354
han	-10.3355
▁shaped	-10.3356
▁sorted	-10.3363
off	-10.3366
▁layout	-10.3367
▁Pe	-10.3369
▁mid	-10.3372
▁predators	-10.3372
▁applying	-10.3378
▁King	-10.3378
▁minimize	-10.338
▁moon	-10.3382
▁tangy	-10.3383
ay	-10.3385
▁Un	-10.3385
▁fellow	-10.3387
▁automation	-10.3387
▁collaborations	-10.3388
▁replace	-10.3391
▁agricultural	-10.3394
▁testament	-10.3401
▁delicate	-10.3402
▁announce	-10.3403
▁Oh	-10.3404
▁strengths	-10.3406
bi	-10.3413
▁paprika	-10.3422
so	-10.3428
▁trial	-10.3431
ya	-10.3446
ups	-10.3448
▁danger	-10.3448
ab	-10.3451
▁manager	-10.3451
%	-10.3452
▁correct	-10.3458
▁combat	-10.3459
▁preserve	-10.346
▁prime	-10.3464
▁chronic	-10.3465
▁Ko	-10.3466
▁0;	-10.3467
for	-10.3469
fi	-10.3475
9	-10.3476
▁master	-10.3477
▁sweetness	-10.3486
ze	-10.3487
▁drawing	-10.3489
▁College	-10.35
▁technological	-10.35
▁objectives	-10.3503
▁Now	-10.3505
chi	-10.3506
▁artwork	-10.3511
▁periods	-10.3512
▁genres	-10.352
▁happened	-10.3523
▁textures	-10.3523
ging	-10.3526
▁Max	-10.3526
▁enhancing	-10.3529
▁privilege	-10.3529
▁simmer	-10.3536
▁13	-10.3538
▁healing	-10.3542
▁gently	-10.3543
▁Follow	-10.3548
▁temperatures	-10.3562
▁flower	-10.3567
▁y	-10.3576
▁round	-10.3576
path	-10.3579
▁determined	-10.3583
mer	-10.3585
▁pleasure	-10.3586
▁mitigate	-10.3587
▁centuries	-10.3593
▁psychological	-10.3594
▁module	-10.3594
av	-10.3597
app	-10.3598
▁adapted	-10.3599
▁watching	-10.3603
ger	-10.3603
▁highest	-10.3604
head	-10.3608
▁Read	-10.3616
▁composition	-10.3617
ren	-10.3619
▁developers	-10.3624
ory	-10.363
ight	-10.363
▁featured	-10.363
▁frequency	-10.3634
▁accounts	-10.3635
▁identified	-10.3637
vi	-10.3644
▁appear	-10.3647
▁Smith	-10.3648
▁Sun	-10.3655
ER	-10.3659
▁smell	-10.366
▁micro	-10.3666
▁etc	-10.3666
▁Foundation	-10.3673
▁Music	-10.3674
▁EST	-10.3677
▁formation	-10.3682
▁crop	-10.37
▁relative	-10.3702
▁boundaries	-10.3709
▁tomorrow	-10.3709
▁Moreover	-10.3709
▁emphasis	-10.3716
▁housing	-10.3717
low	-10.3717
▁aside	-10.3717
form	-10.3717
read	-10.3719
▁pass	-10.3727
▁scenarios	-10.3736
▁buy	-10.3752
▁stretch	-10.3752
▁volunteer	-10.3752
▁wire	-10.3752
efficient	-10.3753
▁hesitate	-10.376
▁thyme	-10.376
action	-10.3762
▁faces	-10.3762
▁absolutely	-10.3762
hu	-10.3762
▁submit	-10.3763
▁Air	-10.3764
▁perseverance	-10.3767
ious	-10.3768
▁reflecting	-10.3769
▁cloves	-10.3772
▁Before	-10.3775
fer	-10.3778
▁Bi	-10.3781
▁fill	-10.3782
▁clearly	-10.3791
▁berries	-10.3802
ble	-10.3802
▁Su	-10.3803
▁serious	-10.3804
▁component	-10.3806
▁achievements	-10.3811
▁Festival	-10.3811
ast	-10.3816
▁faith	-10.3819
▁decided	-10.382
▁bond	-10.3821
▁German	-10.3826
▁village	-10.3827
▁transformation	-10.383
▁Stir	-10.3837
▁bags	-10.3847
▁responsibility	-10.3848
▁limitations	-10.3856
▁paid	-10.3857
▁selecting	-10.3858
History	-10.3858
▁discounts	-10.3863
▁looked	-10.3866
▁wealth	-10.387
▁Test	-10.387
▁Asia	-10.387
▁networks	-10.3878
▁consumers	-10.3881
▁inter	-10.3894
▁daughter	-10.39
▁dive	-10.3906
▁delighted	-10.3906
▁station	-10.3908
▁disaster	-10.3922
▁speakers	-10.3922
▁turns	-10.3922
▁printing	-10.3923
▁II	-10.3925
▁Life	-10.3926
▁bake	-10.3926
ng	-10.3926
▁relate	-10.3928
▁greenhouse	-10.3931
▁authentic	-10.3932
+	-10.3934
▁See	-10.3937
▁ecosystem	-10.3937
▁Therefore	-10.3937
▁fossil	-10.3937
▁cars	-10.3939
▁coat	-10.3939
▁notifications	-10.3946
▁accessories	-10.3952
▁Light	-10.3953
▁responsive	-10.3957
▁melted	-10.3961
▁optimization	-10.3967
▁Mr	-10.3973
▁stakeholders	-10.3974
responsibilities	-10.3974
▁chemical	-10.3975
▁everyday	-10.3986
▁item	-10.3987
▁deadlines	-10.3995
▁standing	-10.3999
▁billion	-10.4
Z	-10.4002
▁White	-10.4004
▁authentication	-10.4006
book	-10.4011
▁modify	-10.4012
▁belief	-10.4013
sum	-10.4015
▁shelter	-10.4019
▁Support	-10.402
▁factor	-10.4026
hy	-10.4026
▁links	-10.4029
▁command	-10.4032
▁thoroughly	-10.4033
▁enjoying	-10.4039
▁happen	-10.4043
▁mustard	-10.4045
nce	-10.4047
▁seconds	-10.4049
▁involvement	-10.4059
▁symbolism	-10.4059
istic	-10.4063
!"	-10.4063
▁March	-10.4063
▁battery	-10.4064
▁peanut	-10.4064
tes	-10.4065
▁pleased	-10.4071
▁Chen	-10.4077
▁cumin	-10.4079
▁emphasize	-10.4084
▁capacity	-10.4087
▁succeed	-10.4087
▁Group	-10.4089
sized	-10.4092
▁Ch	-10.4093
▁Department	-10.4095
▁strings	-10.4098
▁recycling	-10.4102
▁supplies	-10.4102
ong	-10.4103
▁wedding	-10.4107
▁customized	-10.4114
▁pairs	-10.4114
cy	-10.4118
▁harm	-10.4118
▁stuff	-10.4128
ath	-10.4129
▁Book	-10.4131
▁trails	-10.4141
house	-10.4141
▁official	-10.4144
▁Australia	-10.4144
scale	-10.4144
▁keywords	-10.4151
▁skilled	-10.4151
▁Y	-10.4154
cing	-10.4155
▁dynamics	-10.416
▁providers	-10.4172
50	-10.4175
▁copy	-10.4179
▁tall	-10.419
▁legacy	-10.4193
▁realize	-10.4194
creasingly	-10.4199
▁told	-10.4204
▁labor	-10.4205
ill	-10.4206
▁shares	-10.4207
▁2019	-10.4209
▁brings	-10.4212
▁vehicle	-10.4213
▁emphasized	-10.4214
▁Chicago	-10.4216
▁involving	-10.4216
cent	-10.422
▁sensitive	-10.4222
▁meantime	-10.4226
▁cards	-10.4228
▁lasting	-10.4237
▁thrive	-10.4239
her	-10.4243
jo	-10.4244
such	-10.4247
ue	-10.4251
▁Note	-10.4253
▁download	-10.4256
ham	-10.426
▁publication	-10.426
▁prompts	-10.4262
▁warmth	-10.4265
pro	-10.4266
▁framework	-10.4269
▁specialized	-10.4269
▁2018	-10.427
uff	-10.427
▁dead	-10.4273
▁blender	-10.4281
))	-10.4291
▁desire	-10.4295
▁poverty	-10.4301
▁kept	-10.4301
▁biology	-10.4301
▁installation	-10.4309
▁introduce	-10.4319
▁Christian	-10.4321
▁willingness	-10.4326
▁contributing	-10.4332
▁24	-10.4339
▁Cup	-10.4342
▁Western	-10.4347
commerce	-10.4349
▁drop	-10.4349
▁conversations	-10.4351
▁son	-10.4354
▁Ethan	-10.4355
▁waiting	-10.4367
▁quotes	-10.4374
▁spirits	-10.4374
▁signs	-10.4374
▁beat	-10.4376
length	-10.438
ten	-10.4384
▁calming	-10.4388
▁alongside	-10.4389
▁arise	-10.4389
▁Today	-10.4393
▁freedom	-10.4394
ny	-10.4397
▁behaviors	-10.4399
▁habitat	-10.44
▁Francisco	-10.4417
ute	-10.4419
▁du	-10.4422
▁moved	-10.4425
▁Native	-10.4427
▁landmarks	-10.4431
▁term	-10.4433
▁Food	-10.4433
▁Ultimately	-10.444
▁Market	-10.4443
▁strategic	-10.4448
▁cilantro	-10.4448
set	-10.4454
▁genre	-10.4458
▁arguments	-10.4461
▁load	-10.4462
▁breeze	-10.4464
▁predict	-10.4466
▁certainly	-10.4467
vent	-10.4474
▁artifacts	-10.4477
▁episode	-10.448
▁pour	-10.4482
▁breaking	-10.4484
▁crisp	-10.4488
high	-10.4495
▁luxury	-10.4503
▁wrong	-10.4503
▁huge	-10.4513
▁decline	-10.4522
▁liquid	-10.4527
▁paste	-10.4528
ear	-10.4531
▁evoke	-10.4535
▁delays	-10.4535
▁charity	-10.4536
▁Bridge	-10.4536
▁Every	-10.4537
▁athletes	-10.4544
▁greens	-10.4545
king	-10.4546
▁chapter	-10.4546
▁wings	-10.455
▁Association	-10.4551
▁treasure	-10.4551
▁possibilities	-10.4558
▁Feel	-10.4559
▁Em	-10.4566
▁DIY	-10.4566
▁slice	-10.4567
▁Bake	-10.4568
▁raised	-10.4571
▁League	-10.4582
▁int	-10.4586
▁farming	-10.4591
▁hunt	-10.4593
▁displays	-10.4599
▁AR	-10.4605
▁score	-10.4608
▁foot	-10.4608
lying	-10.4615
lic	-10.462
▁checking	-10.4621
▁consist	-10.4621
▁lights	-10.4623
▁3:	-10.463
▁ho	-10.4632
ker	-10.4639
▁explaining	-10.4649
▁$1	-10.4652
▁window	-10.4653
tan	-10.4654
▁AM	-10.4658
▁showed	-10.4664
▁distinct	-10.4669
▁inclusive	-10.467
▁divide	-10.4674
count	-10.4676
▁photography	-10.4681
▁mistakes	-10.4684
▁occurred	-10.4694
▁annual	-10.4694
▁arr	-10.4697
▁pursue	-10.4698
▁Together	-10.4702
▁compete	-10.4702
▁sunlight	-10.4703
▁pink	-10.4705
▁combines	-10.4707
era	-10.4708
▁jump	-10.4709
ug	-10.471
▁threats	-10.4712
▁mindful	-10.4723
▁Christmas	-10.4726
▁assess	-10.4741
▁sculpture	-10.4742
▁evening	-10.4742
air	-10.4758
▁Season	-10.4759
▁visualization	-10.4761
▁groundbreaking	-10.4766
point	-10.4769
▁bars	-10.4772
▁movies	-10.4784
▁mountains	-10.4793
▁Mac	-10.4795
▁participation	-10.4799
▁talent	-10.4799
▁shoes	-10.4801
▁aids	-10.4801
▁quantum	-10.4807
▁relatable	-10.4807
tr	-10.4815
▁pumpkin	-10.4815
bar	-10.4816
▁Public	-10.4819
▁flat	-10.4821
▁launched	-10.4823
▁guitar	-10.4823
▁showcasing	-10.4823
▁differ	-10.4838
▁influencer	-10.4843
▁kick	-10.4848
lan	-10.4852
▁tests	-10.4852
▁Mike	-10.4853
▁relief	-10.4857
▁w	-10.4861
▁craft	-10.4864
▁happiness	-10.4864
▁outfit	-10.4864
▁intensity	-10.4871
▁farm	-10.4876
▁placed	-10.4878
▁lived	-10.4883
**	-10.4896
▁capital	-10.4897
▁bottle	-10.4899
▁define	-10.4899
▁distractions	-10.4902
▁entertainment	-10.4905
▁Da	-10.4909
▁Church	-10.4913
▁intersection	-10.4914
▁director	-10.4915
▁beer	-10.4915
fl	-10.4924
org	-10.4931
▁officials	-10.4934
▁performed	-10.4937
▁abstract	-10.4938
▁Wheth	-10.4938
▁boil	-10.4938
▁zucchini	-10.4946
ville	-10.4947
art	-10.4955
▁ingredient	-10.4957
ified	-10.4966
▁highlighted	-10.4966
▁odd	-10.4979
▁clothes	-10.4983
sk	-10.4983
▁matches	-10.4983
▁cope	-10.4984
▁Even	-10.4985
ile	-10.4985
ps	-10.4987
▁agreed	-10.4988
▁rituals	-10.4989
oo	-10.4989
▁nice	-10.4992
▁writer	-10.4992
▁scheduling	-10.4995
amp	-10.4998
▁optimizing	-10.5004
▁funds	-10.5004
ular	-10.5005
▁conversion	-10.5008
▁suggesting	-10.5008
▁gathering	-10.5011
▁massive	-10.5013
▁rose	-10.5013
▁Both	-10.5018
▁external	-10.502
▁Street	-10.502
▁degree	-10.502
▁June	-10.5021
▁abuse	-10.5022
▁wave	-10.503
▁anecdotes	-10.5032
powered	-10.5038
▁bridge	-10.5038
▁showcases	-10.5043
▁Technology	-10.5043
▁ma	-10.5051
ris	-10.5053
▁consumer	-10.5053
▁fat	-10.5056
@	-10.5058
sta	-10.5061
▁Program	-10.5066
▁routes	-10.5077
▁Gra	-10.5077
▁relax	-10.5085
▁se	-10.5085
-19	-10.5088
ments	-10.5095
▁girl	-10.5097
▁Project	-10.51
▁versatile	-10.5112
▁ship	-10.5124
▁Sophie	-10.5128
▁arms	-10.513
<	-10.5132
fry	-10.5134
char	-10.5144
▁soldiers	-10.5162
▁Store	-10.5167
▁Blue	-10.5167
▁bacon	-10.517
du	-10.5174
▁Wall	-10.5176
▁creature	-10.5178
▁actively	-10.5179
▁courage	-10.5179
▁female	-10.5179
▁terrain	-10.5179
▁Play	-10.5181
▁sensors	-10.5186
▁contract	-10.5188
▁roll	-10.5194
▁preference	-10.5196
▁repair	-10.5197
▁observed	-10.5198
▁experiments	-10.5202
▁operation	-10.5206
▁minor	-10.5214
▁overwhelming	-10.5227
▁characteristics	-10.5232
py	-10.5235
▁grated	-10.5242
▁Bra	-10.5244
▁calories	-10.5245
▁exceptional	-10.525
▁flakes	-10.5255
▁Road	-10.5256
▁generally	-10.5257
▁mention	-10.5258
▁adaptations	-10.5262
▁networking	-10.5263
▁district	-10.5263
▁indicate	-10.5266
▁reason	-10.5272
▁border	-10.5272
gan	-10.5273
▁fly	-10.5274
▁regional	-10.5277
▁gives	-10.528
ach	-10.5281
String	-10.5283
▁however	-10.5284
▁reflection	-10.5285
▁surrounded	-10.5286
rate	-10.5289
▁inventory	-10.529
▁weapons	-10.5291
▁adoption	-10.5291
▁older	-10.5291
▁Heat	-10.5293
▁adults	-10.5295
▁native	-10.5297
▁truth	-10.5297
▁cherry	-10.5297
▁ha	-10.5297
▁darkness	-10.5302
▁restrictions	-10.5306
▁iron	-10.5309
▁graphic	-10.5316
▁interpretation	-10.5318
vis	-10.5325
▁chemistry	-10.5328
▁Stay	-10.5329
▁Implement	-10.5332
▁bo	-10.5333
cha	-10.5336
▁stored	-10.5345
▁turning	-10.5351
▁miss	-10.5355
▁minimum	-10.5357
▁chosen	-10.5359
▁asked	-10.5362
Error	-10.5366
▁humor	-10.5366
▁YouTube	-10.5366
▁crime	-10.5371
▁Revolution	-10.5374
▁Lake	-10.538
▁crisis	-10.5383
▁besides	-10.5385
▁bank	-10.5385
ack	-10.5387
▁Society	-10.5391
ens	-10.5392
▁spray	-10.5392
▁immune	-10.54
▁scheduled	-10.5401
fa	-10.5402
▁delve	-10.5413
ama	-10.5416
▁pilot	-10.5418
▁careful	-10.5423
ification	-10.5429
▁catching	-10.5433
▁observe	-10.5434
▁cater	-10.5438
▁reasons	-10.5443
▁asking	-10.5458
right	-10.5458
▁vulnerable	-10.5461
▁noodles	-10.5465
▁feed	-10.5465
bb	-10.5466
▁Germany	-10.547
sur	-10.5471
▁durable	-10.5478
▁crew	-10.5479
▁decor	-10.5491
▁recognized	-10.5497
▁coding	-10.5509
▁causes	-10.5509
▁audiences	-10.5514
▁expressing	-10.5515
▁linked	-10.5515
▁grown	-10.5519
▁Students	-10.5519
▁gear	-10.5522
▁v	-10.5526
row	-10.553
▁interaction	-10.5532
▁Ad	-10.5534
▁civilization	-10.5536
▁preliminary	-10.5539
▁subtle	-10.5539
▁films	-10.554
▁designers	-10.5546
▁agency	-10.5548
▁teamwork	-10.5554
pm	-10.5577
tri	-10.5582
ons	-10.5588
▁engines	-10.559
▁Space	-10.5591
▁lyrics	-10.5591
▁logistics	-10.5591
▁baked	-10.5598
▁assessment	-10.5599
▁trauma	-10.5608
▁visibility	-10.5609
▁shredded	-10.5609
Fi	-10.5611
▁familiar	-10.5618
▁performing	-10.562
▁remained	-10.5621
▁panels	-10.5636
▁crack	-10.5642
▁raw	-10.5646
▁Identify	-10.5653
▁wife	-10.5654
▁notice	-10.5655
▁Learning	-10.566
▁banana	-10.566
▁Washington	-10.5662
ever	-10.5664
▁resulted	-10.5666
▁records	-10.567
▁stirring	-10.5672
▁Company	-10.5673
▁County	-10.5673
▁delay	-10.5673
driven	-10.5675
▁rental	-10.5675
▁tie	-10.5679
▁computing	-10.568
▁imp	-10.5681
-1	-10.5682
▁Beach	-10.5684
▁optimal	-10.5688
▁crystal	-10.5688
▁younger	-10.569
mm	-10.5691
▁Post	-10.5694
▁Click	-10.5698
▁specialize	-10.5698
▁awe	-10.5703
▁viewers	-10.5705
▁inviting	-10.5706
▁promotions	-10.5711
▁tutorials	-10.5712
▁portion	-10.5712
▁rhythm	-10.5723
▁aesthetic	-10.5725
▁respective	-10.5727
▁industrial	-10.5728
▁wish	-10.5729
▁salmon	-10.5733
▁refine	-10.5739
▁participating	-10.5742
lit	-10.5744
▁sandwich	-10.5746
ray	-10.5755
▁explored	-10.5757
▁steel	-10.576
▁2012	-10.576
Name	-10.5766
▁Monday	-10.5769
▁Islamic	-10.5769
▁exclusive	-10.577
▁Grand	-10.577
▁writers	-10.5787
▁charge	-10.5792
▁achievement	-10.5795
new	-10.5796
▁fears	-10.5797
▁cast	-10.5797
▁reference	-10.5803
▁strain	-10.5805
▁Garden	-10.5806
▁mass	-10.5813
▁robust	-10.5813
▁500	-10.5814
water	-10.582
▁Maya	-10.5821
▁emails	-10.5826
▁comparison	-10.5831
ration	-10.5836
▁Talk	-10.5836
▁Ex	-10.5845
▁intriguing	-10.5849
▁interventions	-10.5858
▁visualize	-10.5861
▁savings	-10.5862
ung	-10.5866
oc	-10.5868
▁representation	-10.5868
Mo	-10.5868
▁Am	-10.5875
▁Mexico	-10.5876
▁rules	-10.5883
iv	-10.5883
val	-10.5883
▁node	-10.5884
▁Business	-10.5886
▁minute	-10.5889
▁George	-10.5894
▁gaming	-10.5894
▁pretty	-10.5903
▁believes	-10.5904
field	-10.5909
▁21	-10.591
▁expensive	-10.5912
ged	-10.5914
▁collected	-10.5916
▁meant	-10.592
▁Bay	-10.5921
▁cooperation	-10.5922
▁dining	-10.5923
▁smile	-10.5932
cho	-10.5939
▁disappointed	-10.594
▁Network	-10.5941
▁kit	-10.5943
▁pure	-10.5947
▁echo	-10.5948
();	-10.5949
▁parties	-10.5949
die	-10.595
▁mouth	-10.5956
▁grass	-10.5958
▁corner	-10.5959
▁Old	-10.5961
▁Bring	-10.5961
▁twists	-10.5963
ew	-10.5966
▁mythology	-10.5967
▁parent	-10.5978
▁religion	-10.5982
▁leather	-10.5985
▁accessibility	-10.5986
▁trend	-10.5989
▁li	-10.5991
▁died	-10.5996
▁Cr	-10.5997
▁defense	-10.5998
▁(1	-10.5999
].	-10.5999
▁fats	-10.5999
▁violence	-10.6003
▁Cor	-10.6004
▁wooden	-10.6007
ag	-10.6009
grade	-10.6012
▁Mu	-10.6018
▁failure	-10.6019
▁rocks	-10.602
▁finalize	-10.6023
▁continuing	-10.6024
▁Renaissance	-10.6026
gg	-10.6028
mat	-10.6031
▁melody	-10.6031
▁retention	-10.6032
▁gr	-10.6033
▁tailor	-10.6035
▁batter	-10.604
▁Parmesan	-10.6049
▁Lee	-10.6062
▁roast	-10.6064
▁imagine	-10.6066
▁silver	-10.6068
▁thorough	-10.6069
▁holds	-10.6072
▁habitats	-10.6076
car	-10.6083
▁muscles	-10.6085
▁nutritious	-10.6086
▁threat	-10.6089
▁theater	-10.6092
▁forced	-10.6094
▁visited	-10.6095
Regarding	-10.6103
▁ceremony	-10.6105
▁shipping	-10.6105
▁Canada	-10.6109
▁£	-10.611
▁ten	-10.6116
▁arrange	-10.612
▁Management	-10.6121
▁September	-10.6122
▁ca	-10.6123
▁counter	-10.6123
?"	-10.6128
▁encouraged	-10.613
ving	-10.6131
▁animation	-10.6131
lt	-10.6133
▁layers	-10.614
▁adjustments	-10.614
▁clarity	-10.6142
▁recall	-10.6142
mar	-10.6146
▁poor	-10.6147
▁correctly	-10.6151
▁developments	-10.6153
▁measurements	-10.6157
▁interviews	-10.6157
▁productive	-10.6162
▁decide	-10.6168
az	-10.6172
▁newfound	-10.6173
ose	-10.6175
▁webinar	-10.6179
▁knowing	-10.6181
▁isolation	-10.6188
▁Fresh	-10.6188
lor	-10.6189
Ma	-10.6194
▁insurance	-10.6197
ware	-10.6202
▁comment	-10.6206
▁manuscript	-10.6207
▁victory	-10.6207
▁mode	-10.6208
ji	-10.6216
▁libraries	-10.6216
▁referral	-10.6226
▁fishing	-10.6228
▁Ja	-10.6233
▁legs	-10.6237
▁edges	-10.6238
wa	-10.6239
▁Next	-10.6242
▁migration	-10.6244
▁Show	-10.6261
▁accurately	-10.6261
▁dust	-10.6263
▁pushing	-10.6266
▁searching	-10.6268
▁horror	-10.6272
▁celebrated	-10.6273
▁bodies	-10.6282
▁curry	-10.6282
▁sour	-10.6284
▁wearing	-10.6286
▁selected	-10.6287
ita	-10.6288
▁•	-10.6292
well	-10.6296
▁medieval	-10.63
▁Specifically	-10.631
▁Italy	-10.6311
▁crunch	-10.6311
▁neighborhood	-10.6313
▁sport	-10.6317
▁grammar	-10.6319
ino	-10.6322
▁artificial	-10.6329
▁DNA	-10.633
▁Similarly	-10.633
▁pool	-10.6331
▁label	-10.6333
rich	-10.6336
▁checks	-10.6337
▁criteria	-10.6338
▁Real	-10.6342
und	-10.6343
▁Join	-10.6343
px	-10.6347
Teaching	-10.6352
▁Pan	-10.6356
▁Sunday	-10.6358
▁contribution	-10.636
▁tutorial	-10.6361
▁leverage	-10.6374
▁salsa	-10.6376
▁gone	-10.6377
▁shops	-10.6382
▁competitors	-10.6386
▁designing	-10.6387
ify	-10.6389
▁paintings	-10.6393
size	-10.6394
▁pack	-10.6395
nes	-10.6396
▁adopt	-10.64
▁intuitive	-10.6405
▁rough	-10.6407
ick	-10.641
▁Development	-10.6414
med	-10.6421
▁Central	-10.6424
▁lose	-10.6431
SA	-10.6431
▁gun	-10.6433
▁Valley	-10.6434
▁emerged	-10.6434
▁Inter	-10.6435
qua	-10.6441
▁2-3	-10.6449
▁preferred	-10.6453
▁secrets	-10.646
▁mentions	-10.6471
▁Which	-10.6472
bin	-10.6472
▁maple	-10.6475
rd	-10.6478
▁Media	-10.6479
▁preservation	-10.6481
▁operating	-10.6482
▁stack	-10.6482
▁revealed	-10.6485
▁Union	-10.6485
St	-10.6487
Innovation	-10.6487
▁targeting	-10.6488
▁emerging	-10.6491
▁straight	-10.6491
▁August	-10.6491
▁Ti	-10.6493
▁unknown	-10.6493
▁topping	-10.6502
▁birth	-10.6519
▁educate	-10.652
▁judge	-10.652
▁2013	-10.652
▁binary	-10.652
▁Sch	-10.6521
▁seven	-10.6521
▁passing	-10.6526
▁Since	-10.6529
▁Mary	-10.6535
▁false	-10.6535
▁chop	-10.6536
To	-10.6541
▁nutrient	-10.6544
▁phase	-10.6549
▁Ver	-10.6551
▁detection	-10.6553
▁criticism	-10.6554
▁announced	-10.6557
▁excess	-10.6557
▁independent	-10.6558
▁dealing	-10.6561
▁containers	-10.6564
print	-10.6566
tive	-10.6566
▁biggest	-10.6568
▁primarily	-10.6568
▁normal	-10.6568
▁pride	-10.6578
▁purposes	-10.6584
▁supports	-10.6587
▁workouts	-10.6589
aw	-10.6589
uck	-10.6597
▁football	-10.6597
▁shades	-10.6605
▁extended	-10.6606
▁cloth	-10.661
▁duration	-10.6617
▁install	-10.6617
▁Power	-10.6618
▁spots	-10.6621
▁revised	-10.6621
▁Nature	-10.6624
▁functional	-10.6625
▁utilizing	-10.6626
▁conducting	-10.6627
▁overwhelmed	-10.6629
gar	-10.6632
▁accept	-10.6632
income	-10.6636
▁Clean	-10.6636
▁exit	-10.6638
▁facilitate	-10.664
▁reinforce	-10.6642
▁coastal	-10.6649
ria	-10.6649
▁Police	-10.6655
▁protecting	-10.6656
▁unable	-10.6657
▁eight	-10.6657
ect	-10.6659
ane	-10.666
▁garnish	-10.6661
▁illness	-10.6661
mber	-10.6667
▁sta	-10.6673
▁Mexican	-10.6675
▁purchasing	-10.6675
▁gods	-10.6676
▁volunteers	-10.668
▁glow	-10.6701
▁react	-10.6703
▁aroma	-10.6704
▁essence	-10.6704
ole	-10.6707
▁roof	-10.6714
Me	-10.6716
▁pictures	-10.672
▁wash	-10.672
▁Adding	-10.6722
▁fighting	-10.6722
▁Up	-10.6725
▁Alice	-10.6725
▁prevention	-10.6731
▁trouble	-10.6734
▁stood	-10.6734
▁submission	-10.6734
▁Hill	-10.6735
▁lift	-10.6738
▁recycled	-10.674
▁approximately	-10.6751
▁rent	-10.6751
▁Star	-10.6758
▁insects	-10.6762
▁drama	-10.6763
▁precision	-10.6763
▁warning	-10.6763
▁selling	-10.6771
▁Ku	-10.6772
▁mindset	-10.6776
ez	-10.6777
▁bus	-10.6782
`.	-10.6783
▁prominent	-10.6785
box	-10.6787
▁streets	-10.6789
▁paraphrase	-10.6793
▁occur	-10.6794
mal	-10.6794
▁concern	-10.6794
▁broken	-10.6795
▁strange	-10.6797
▁route	-10.6798
▁clinical	-10.681
▁difficulty	-10.6811
▁expansion	-10.6813
▁alternatives	-10.6815
▁grid	-10.6818
▁Who	-10.6819
▁captures	-10.682
▁gender	-10.6823
▁backgrounds	-10.6824
▁surprise	-10.6832
▁4:	-10.6839
ell	-10.6842
▁People	-10.6842
ura	-10.6845
AR	-10.6846
▁Ni	-10.6846
▁motor	-10.6847
ES	-10.6847
lar	-10.685
▁row	-10.6853
▁miles	-10.6855
▁almonds	-10.6856
($	-10.6861
▁Experiment	-10.6862
▁fundamental	-10.6862
▁submitted	-10.6864
▁affecting	-10.6866
▁soap	-10.6866
▁falling	-10.6868
lon	-10.6872
▁oils	-10.6874
▁appears	-10.6879
ery	-10.6881
▁earn	-10.6881
▁owners	-10.6882
▁seat	-10.6882
▁meetings	-10.6882
Q	-10.6889
▁‘	-10.6889
ries	-10.689
▁producing	-10.6892
▁Grilled	-10.69
dia	-10.6901
▁broccoli	-10.6902
▁Lord	-10.6903
▁fix	-10.6905
▁Brown	-10.6912
▁therapist	-10.6913
▁motivate	-10.6932
pp	-10.6941
▁promotion	-10.6942
▁compassion	-10.695
▁o	-10.695
view	-10.695
We	-10.6952
▁makeup	-10.6961
▁attempt	-10.6961
▁repeat	-10.6963
▁defeat	-10.6967
▁marked	-10.6968
▁Island	-10.6972
▁agencies	-10.6973
▁starts	-10.6995
▁finance	-10.6999
▁gardens	-10.6999
ned	-10.7
level	-10.7
▁completing	-10.7003
▁authorities	-10.7004
▁displayed	-10.7005
▁feta	-10.7007
];	-10.7008
▁meets	-10.7009
▁preventing	-10.7009
▁Building	-10.7011
▁SEO	-10.7013
▁killed	-10.702
▁exhibition	-10.7023
▁pin	-10.7023
▁Har	-10.7024
▁rising	-10.7024
building	-10.7025
▁Eastern	-10.7026
▁environmentally	-10.7028
▁apples	-10.703
▁exactly	-10.703
▁chill	-10.7032
▁alcohol	-10.7036
▁coach	-10.7038
▁End	-10.7041
▁cleaner	-10.7041
▁parks	-10.7045
▁zero	-10.7048
inch	-10.7049
▁urgency	-10.7054
▁stands	-10.7054
ably	-10.7055
▁begins	-10.7055
▁Latin	-10.7055
▁mini	-10.7057
▁popularity	-10.7059
▁covering	-10.7059
▁retailers	-10.7064
▁h	-10.7066
▁Thai	-10.7067
effective	-10.7067
▁confirm	-10.7072
▁measuring	-10.7074
▁hip	-10.708
pre	-10.7083
▁Rachel	-10.7084
▁2014	-10.7085
▁trained	-10.7085
pl	-10.7087
▁opened	-10.7088
century	-10.7089
▁rule	-10.709
▁pull	-10.7091
▁streaming	-10.7094
▁Allow	-10.7095
▁CSS	-10.7097
▁combinations	-10.7101
len	-10.7101
▁depends	-10.7101
▁chatbot	-10.7103
▁boy	-10.7104
▁privacy	-10.7104
▁Global	-10.7105
▁intake	-10.711
▁hummus	-10.7115
▁relaxing	-10.7115
▁endless	-10.712
▁processor	-10.7123
▁utilized	-10.7132
▁beginner	-10.7134
#	-10.7141
gram	-10.7143
▁editing	-10.7143
▁tourists	-10.7143
▁outcome	-10.7147
▁Australian	-10.7156
-3	-10.7162
▁soda	-10.7164
▁STEM	-10.7164
▁bath	-10.7165
▁vi	-10.7168
▁intended	-10.7169
▁leg	-10.717
";	-10.717
tta	-10.7171
▁awesome	-10.7176
▁instrumental	-10.7181
For	-10.7187
▁bite	-10.719
body	-10.7195
▁destinations	-10.7195
▁Environmental	-10.7196
▁phrases	-10.7197
▁Act	-10.7197
▁Last	-10.7198
▁Free	-10.7199
▁transformed	-10.72
▁Rome	-10.7201
▁angle	-10.7205
▁lay	-10.7206
▁cucumber	-10.7207
▁directory	-10.7208
▁rooms	-10.7211
▁Service	-10.7213
▁Cover	-10.7215
▁radio	-10.7215
▁metaphors	-10.7216
▁criminal	-10.7217
▁fragrance	-10.7217
▁refrigerator	-10.7217
▁saying	-10.7218
▁Will	-10.722
bra	-10.7223
▁samples	-10.7225
▁nearly	-10.7225
▁vendors	-10.7229
▁Ru	-10.7229
▁decimal	-10.723
▁Visit	-10.7238
▁burn	-10.7248
▁Texas	-10.7248
▁swimming	-10.7248
ari	-10.7249
▁decrease	-10.7249
minute	-10.7257
▁Reduce	-10.7259
▁thousands	-10.726
▁inches	-10.7261
▁roots	-10.7268
▁sc	-10.7268
▁matrix	-10.7269
▁indoor	-10.7272
▁Jo	-10.7276
▁president	-10.728
Pa	-10.7281
RE	-10.7281
▁toss	-10.7284
rap	-10.7288
▁deals	-10.7289
lie	-10.7289
ets	-10.729
▁locally	-10.7291
▁wrote	-10.73
purpose	-10.7309
stone	-10.7309
De	-10.731
▁bear	-10.7312
▁William	-10.7313
▁isn	-10.7316
Le	-10.7319
▁slides	-10.7321
▁Club	-10.7321
▁automatically	-10.7321
▁paragraph	-10.7321
▁resolve	-10.7323
▁Salad	-10.7325
ada	-10.7329
▁consideration	-10.7338
▁ends	-10.7339
▁exhibits	-10.7347
ient	-10.7347
ric	-10.735
▁fund	-10.7358
kin	-10.7361
▁Th	-10.7362
▁worldwide	-10.7366
▁hero	-10.7366
▁museums	-10.7368
▁minerals	-10.7368
▁coverage	-10.7369
▁Pacific	-10.7374
▁suits	-10.7376
data	-10.7378
tter	-10.7378
▁regulate	-10.7387
▁fridge	-10.7395
▁Studies	-10.7396
burg	-10.7397
▁uncover	-10.7398
▁seasonal	-10.7402
▁mathematical	-10.7405
▁tourist	-10.7412
depth	-10.7415
gra	-10.7417
▁enabling	-10.7426
▁proposing	-10.7426
▁specified	-10.743
pt	-10.7432
▁influences	-10.7433
▁Egypt	-10.7435
▁Change	-10.7436
▁reusable	-10.7437
▁decorative	-10.7437
tur	-10.7442
▁Du	-10.7445
onic	-10.7448
▁mentor	-10.745
▁Year	-10.7452
▁runs	-10.7452
▁Ri	-10.7453
▁Roll	-10.7455
▁charges	-10.7456
▁Dis	-10.7459
▁provider	-10.7462
▁owner	-10.7465
▁manipulate	-10.7468
▁concrete	-10.7468
▁Vegan	-10.7469
▁representing	-10.7482
▁avoiding	-10.7484
▁Zoom	-10.7485
▁procedures	-10.7488
▁shadows	-10.7488
▁charged	-10.7492
▁campus	-10.7492
▁tower	-10.7498
hand	-10.75
▁mild	-10.7502
▁wheat	-10.7503
▁pa	-10.7503
▁branches	-10.7503
▁disasters	-10.7512
▁cap	-10.7513
▁signal	-10.7515
▁Example	-10.7516
▁characterized	-10.7516
▁stew	-10.7518
▁sh	-10.7522
▁sunset	-10.7523
▁debt	-10.7532
▁cash	-10.7535
▁Ask	-10.7541
▁Council	-10.7543
▁architectural	-10.7543
▁Lemon	-10.7544
Community	-10.7544
▁hardware	-10.7544
▁laws	-10.7558
▁1-2	-10.756
▁quote	-10.7565
▁hearts	-10.7567
▁yield	-10.757
▁Te	-10.7572
▁universities	-10.7575
▁2011	-10.7576
ple	-10.7576
▁fiction	-10.7583
▁Civil	-10.7585
▁tasty	-10.7585
ala	-10.7586
▁camp	-10.7594
▁Tips	-10.7594
▁studio	-10.7596
▁stable	-10.7599
▁Define	-10.7607
▁dragon	-10.7611
▁arrangements	-10.7612
▁const	-10.7613
▁buying	-10.7613
▁str	-10.7614
▁Asian	-10.7615
▁enhanced	-10.7615
▁leaf	-10.7618
11	-10.7619
ib	-10.7621
▁reviewing	-10.7626
▁offerings	-10.7626
▁suspense	-10.7628
▁seed	-10.7638
▁dairy	-10.7641
har	-10.7642
▁log	-10.7647
▁lock	-10.765
▁entry	-10.765
text	-10.7651
▁church	-10.7656
▁politics	-10.7661
rat	-10.7661
▁satisfied	-10.7662
▁shine	-10.7664
▁breakthrough	-10.767
▁connecting	-10.7674
▁Rock	-10.7676
▁>	-10.7677
▁October	-10.7682
▁durability	-10.7682
▁Repeat	-10.7682
rry	-10.7689
table	-10.7691
▁Product	-10.7692
▁receiving	-10.7693
▁Output	-10.7693
▁Java	-10.7697
▁subjects	-10.7701
▁booking	-10.7703
▁joining	-10.7706
▁Manchester	-10.7715
▁Court	-10.7715
▁vitamins	-10.7717
value	-10.7719
mate	-10.7724
▁Boston	-10.7726
▁units	-10.7728
▁Out	-10.7728
▁documentation	-10.773
ford	-10.773
press	-10.7731
▁App	-10.7734
extremely	-10.7734
▁sophisticated	-10.7747
▁encryption	-10.7748
▁priority	-10.7748
60	-10.7748
▁reporting	-10.7752
▁July	-10.7755
▁stated	-10.7756
▁guess	-10.7758
▁aircraft	-10.776
▁incorporates	-10.776
▁Although	-10.7769
▁cultivate	-10.7769
▁vintage	-10.7769
▁harmony	-10.7769
▁fluid	-10.7771
▁witness	-10.7771
ological	-10.7772
▁exact	-10.7773
ef	-10.7774
mic	-10.7778
▁shock	-10.778
nn	-10.7784
▁disabilities	-10.7791
▁storing	-10.7791
▁instrument	-10.7794
▁spa	-10.7798
▁Trail	-10.7798
▁phrase	-10.7802
▁reinforced	-10.7803
ola	-10.7803
▁closed	-10.7804
▁formed	-10.7812
▁40	-10.7812
▁Tra	-10.7814
▁methodology	-10.7816
Co	-10.7827
▁Online	-10.7827
ans	-10.7835
▁agreement	-10.784
▁blockchain	-10.7846
▁male	-10.7848
▁chart	-10.7849
dicating	-10.7857
▁squash	-10.7857
▁breathtaking	-10.7857
▁Hotel	-10.7859
▁prison	-10.7865
site	-10.7866
▁silk	-10.7868
▁alert	-10.7873
▁playful	-10.7882
▁hotels	-10.7882
nic	-10.7888
▁installed	-10.7898
▁nuclear	-10.7901
▁Spring	-10.7901
▁perception	-10.7902
++	-10.7904
▁shade	-10.7905
▁Image	-10.7906
▁totally	-10.791
nu	-10.7911
▁Ben	-10.7911
▁outlining	-10.7912
▁Select	-10.7914
▁gene	-10.7916
ara	-10.7917
▁invested	-10.7917
▁traveling	-10.7919
▁Si	-10.7919
▁possibly	-10.7923
▁Royal	-10.7926
▁mask	-10.7926
▁spoke	-10.793
▁branding	-10.7932
▁regulation	-10.7933
▁husband	-10.7934
▁plain	-10.7935
▁11.	-10.7942
▁lists	-10.7946
cu	-10.7955
▁simulations	-10.7955
▁knife	-10.7956
▁cycling	-10.7968
▁lettuce	-10.7968
▁animations	-10.7969
▁reactions	-10.7971
▁windows	-10.7971
▁expanding	-10.7972
▁facts	-10.798
▁lentils	-10.7986
▁hashtags	-10.7987
▁elegant	-10.799
▁Obama	-10.799
▁mark	-10.7994
▁machines	-10.7996
▁Tokyo	-10.8001
▁endeavor	-10.8001
▁oz	-10.8002
gate	-10.8006
▁camping	-10.8014
▁min	-10.8015
▁maximize	-10.8015
▁landing	-10.8016
▁pen	-10.8019
▁killer	-10.802
▁sought	-10.8024
▁born	-10.8025
SE	-10.8029
▁channel	-10.8031
▁translation	-10.8033
▁grocery	-10.8035
▁pursuing	-10.8035
▁steak	-10.8035
▁employment	-10.8036
▁prints	-10.8045
▁culinary	-10.8046
▁countless	-10.8048
▁attach	-10.805
▁advantages	-10.8055
▁Fe	-10.8056
cal	-10.8057
▁evaluation	-10.8057
▁restoration	-10.8057
▁motivations	-10.8062
▁stream	-10.8062
service	-10.8066
RA	-10.8069
▁volunteering	-10.8075
▁talking	-10.8077
▁grace	-10.8079
▁modified	-10.808
▁sausage	-10.808
▁Climate	-10.808
inspired	-10.8089
▁encouragement	-10.8089
▁strike	-10.8092
▁cubes	-10.8095
uc	-10.81
▁basis	-10.8102
▁jar	-10.8104
▁backup	-10.8107
▁Mars	-10.811
▁max	-10.8116
▁Plant	-10.8121
pan	-10.8122
▁Review	-10.8126
▁mathematics	-10.8136
▁strict	-10.8136
▁quarter	-10.8136
12	-10.8147
▁turkey	-10.8147
▁export	-10.8148
▁gardening	-10.815
▁🌱	-10.8153
▁sauté	-10.8154
▁ceremonies	-10.8159
▁Sometimes	-10.8159
▁LinkedIn	-10.817
▁Mediterranean	-10.817
▁earliest	-10.817
▁interior	-10.817
▁signature	-10.817
pec	-10.8174
▁categories	-10.818
number	-10.818
▁Analyze	-10.8181
▁Smart	-10.8185
▁happening	-10.8187
▁rolling	-10.8193
▁Spread	-10.8193
▁outreach	-10.8194
▁smoked	-10.8199
▁references	-10.8202
vin	-10.8204
▁giant	-10.8204
25	-10.8205
▁barriers	-10.8206
▁emotion	-10.8206
▁Virtual	-10.8208
ini	-10.8212
▁Gu	-10.8215
▁percentage	-10.8216
▁Know	-10.8218
▁degrees	-10.8222
▁chest	-10.8229
▁opinions	-10.8231
▁Bur	-10.8232
▁Ju	-10.8233
▁fictional	-10.8233
ants	-10.8234
▁Explain	-10.8238
▁yeast	-10.8239
▁Minister	-10.8239
ey	-10.8239
overcoming	-10.8241
par	-10.8247
og	-10.8248
▁persuasive	-10.825
▁cookie	-10.8251
els	-10.8253
▁impression	-10.8253
AS	-10.8253
▁whenever	-10.8258
IT	-10.8258
▁supernatural	-10.8261
iness	-10.8264
▁bill	-10.8265
▁vitamin	-10.827
▁celebration	-10.827
▁disorder	-10.827
▁structured	-10.827
`,	-10.8272
▁Children	-10.8273
part	-10.8278
▁manual	-10.8278
▁wants	-10.8279
▁quizzes	-10.8284
▁valued	-10.8284
▁Digital	-10.8286
▁Super	-10.8286
▁desk	-10.8287
▁lean	-10.8288
▁pairing	-10.829
▁Marcus	-10.8296
▁accommodations	-10.8299
▁driver	-10.8299
▁niche	-10.8307
room	-10.8313
uk	-10.8315
▁ages	-10.8316
▁split	-10.8317
▁reveal	-10.8325
iti	-10.8327
▁Blend	-10.833
▁2017	-10.8331
▁2016	-10.8331
▁equipped	-10.8333
matic	-10.8333
▁Language	-10.8335
▁Russian	-10.8336
MA	-10.8337
▁mirror	-10.8342
▁pace	-10.8342
▁indeed	-10.8343
rid	-10.8345
ain	-10.8345
▁mu	-10.8349
▁fostering	-10.835
eg	-10.8351
▁bad	-10.8353
▁facility	-10.8353
▁Mc	-10.8355
▁entirely	-10.8356
▁para	-10.8362
▁retail	-10.8369
▁responses	-10.8369
▁immediate	-10.8369
▁thoughtful	-10.8371
pha	-10.8371
▁Arctic	-10.8377
▁l	-10.8381
▁seriously	-10.8388
▁mint	-10.8391
▁Give	-10.8393
▁enthusiasts	-10.8397
▁da	-10.8398
▁Chi	-10.8399
▁sister	-10.8401
▁utilize	-10.8403
ney	-10.8404
▁reward	-10.8412
▁citizens	-10.8415
▁ban	-10.8418
▁Lastly	-10.842
▁intervention	-10.8423
▁sleek	-10.8423
▁winning	-10.8427
▁discount	-10.8431
▁Ve	-10.8432
▁keen	-10.8435
profit	-10.8436
15	-10.8437
▁absorb	-10.8437
▁illustrations	-10.8439
▁promotional	-10.8441
▁mechanics	-10.8442
▁Ki	-10.8443
▁smoothly	-10.8443
▁Paul	-10.8445
▁astronomy	-10.8446
▁inflammation	-10.8446
▁honored	-10.8449
▁steam	-10.8453
▁Report	-10.8457
▁circle	-10.8458
▁Jake	-10.8459
▁planned	-10.8462
▁forgiveness	-10.8466
▁Big	-10.8469
▁losing	-10.847
all	-10.8489
town	-10.8491
▁Customer	-10.8492
▁lightly	-10.8493
▁imagination	-10.8493
▁kale	-10.8494
▁Local	-10.8496
ese	-10.8499
late	-10.8502
fo	-10.8503
▁calling	-10.8504
▁symbolize	-10.8504
▁column	-10.8506
1,	-10.8508
▁shower	-10.8509
▁investors	-10.8518
▁boat	-10.8518
▁Ham	-10.8518
▁Sp	-10.852
▁inequality	-10.8529
▁nut	-10.853
pot	-10.8534
▁recommendation	-10.8535
▁reduces	-10.8537
▁governments	-10.8538
graph	-10.8541
▁2015	-10.8541
cer	-10.8544
cc	-10.855
▁chaos	-10.8552
▁narrow	-10.8552
▁lightweight	-10.8554
▁hunting	-10.8556
▁Tour	-10.8564
▁personalize	-10.8566
▁Mindfulness	-10.8567
▁estimated	-10.8568
▁Host	-10.8574
▁minimal	-10.8574
▁advocate	-10.8579
▁width	-10.8579
ov	-10.8585
▁Van	-10.8587
▁triangle	-10.8588
▁invites	-10.8589
▁2010	-10.8589
▁sitting	-10.859
▁Cloud	-10.8593
▁castle	-10.8597
▁accommodate	-10.8599
▁saucepan	-10.8602
▁User	-10.8602
▁ultimate	-10.8604
▁shadow	-10.8606
ump	-10.8609
▁recipient	-10.8611
▁fur	-10.8611
power	-10.8611
▁Irish	-10.8611
▁coping	-10.8614
▁precise	-10.8615
▁accident	-10.8616
▁arm	-10.8617
▁variables	-10.862
ata	-10.8625
▁customs	-10.8627
Insert	-10.8634
▁neck	-10.8642
▁toast	-10.8643
▁celery	-10.8647
▁regardless	-10.8647
▁acknowledge	-10.8648
▁dense	-10.8649
▁category	-10.8649
▁seal	-10.8653
▁optimized	-10.8653
tech	-10.8654
▁Cal	-10.8654
play	-10.8656
▁drought	-10.8659
▁Hand	-10.8664
tern	-10.8664
pping	-10.8666
▁grains	-10.8669
▁November	-10.8671
▁neutral	-10.8674
zo	-10.8679
▁mi	-10.8679
▁holes	-10.8681
Health	-10.8681
▁spoon	-10.8682
▁qualities	-10.8683
▁Jessica	-10.8683
▁upper	-10.8684
▁greatest	-10.8686
▁exist	-10.8688
▁guides	-10.869
▁invited	-10.8692
▁Age	-10.8693
▁soothing	-10.8695
▁Queen	-10.8695
▁tap	-10.8695
long	-10.8706
▁tri	-10.8709
ob	-10.8714
▁Cla	-10.8714
▁Sweet	-10.8719
▁patience	-10.8719
▁societal	-10.8719
▁investigate	-10.8722
nder	-10.8724
▁marinade	-10.8731
▁philosophy	-10.8731
▁1)	-10.8737
▁Long	-10.8743
▁oats	-10.8746
product	-10.875
▁habit	-10.8751
▁circumstances	-10.8755
▁executive	-10.8755
▁geometric	-10.8755
▁dramatic	-10.8755
▁weaknesses	-10.8756
https	-10.8756
▁sing	-10.8757
▁templates	-10.8758
▁die	-10.8759
2)	-10.876
▁le	-10.8764
▁obtain	-10.8765
▁survivors	-10.8765
▁desserts	-10.8767
Invalid	-10.8772
▁Academy	-10.8779
▁drizzle	-10.8779
▁nervous	-10.8779
▁peers	-10.8781
▁resort	-10.8786
▁heal	-10.8788
▁targets	-10.8798
ella	-10.88
ase	-10.88
Con	-10.88
▁Chocolate	-10.8803
▁beneath	-10.8803
▁Small	-10.8806
▁consistently	-10.8814
▁ourselves	-10.8815
dal	-10.882
▁clubs	-10.8821
▁Web	-10.8822
eek	-10.8822
gal	-10.8827
▁striking	-10.8827
▁divine	-10.8827
▁Attend	-10.8827
▁Bio	-10.8829
▁Pay	-10.8833
▁van	-10.8837
▁positively	-10.8837
▁Press	-10.8838
gl	-10.8839
▁concentration	-10.8839
▁Daniel	-10.8839
▁10-15	-10.8839
▁saving	-10.8847
▁edit	-10.8848
▁22	-10.885
▁hosting	-10.8852
▁brother	-10.8854
vert	-10.8858
▁travelers	-10.8861
▁Tech	-10.8863
unk	-10.8868
▁freshly	-10.8868
▁scratch	-10.8871
▁Fa	-10.8873
▁contest	-10.8874
▁Sophia	-10.8876
▁stylish	-10.8876
▁visible	-10.8876
▁Tower	-10.8877
▁stations	-10.8878
▁Key	-10.8881
▁Build	-10.8883
lat	-10.8884
▁Team	-10.8886
▁scan	-10.8888
▁urgent	-10.8888
▁frequent	-10.8893
▁sentiment	-10.8893
ash	-10.8896
▁occasionally	-10.8904
▁Code	-10.8905
▁planting	-10.8911
▁federal	-10.8912
ency	-10.8914
▁sl	-10.8915
**:	-10.8915
▁fade	-10.8923
▁generating	-10.8925
55	-10.8928
▁January	-10.8932
pr	-10.8935
▁maps	-10.8935
▁stages	-10.8937
▁debris	-10.8937
▁customization	-10.8939
▁flash	-10.8939
▁canvas	-10.8939
▁neighbor	-10.8947
▁temple	-10.8948
▁destruction	-10.8949
▁Gi	-10.8949
▁dipping	-10.895
▁lake	-10.8951
▁Inc	-10.8954
▁Los	-10.8965
▁ending	-10.8966
▁civil	-10.8968
▁Turn	-10.8969
specific	-10.8972
▁mar	-10.8973
▁ski	-10.8973
▁charts	-10.8973
▁cohesive	-10.8974
▁pottery	-10.8974
▁demonstrated	-10.898
▁suggestion	-10.898
▁difficulties	-10.8981
js	-10.8983
ET	-10.8988
▁electrical	-10.8989
▁drugs	-10.899
▁damaged	-10.8991
▁antioxidants	-10.8997
▁tracks	-10.8998
▁failed	-10.9007
ators	-10.9008
▁Microsoft	-10.9011
▁estate	-10.9012
▁Think	-10.9016
▁curiosity	-10.9023
▁influential	-10.9023
▁removing	-10.9023
▁evolve	-10.9028
RI	-10.9034
bil	-10.9035
▁suspenseful	-10.9036
bri	-10.9038
▁CO	-10.9041
▁heating	-10.9043
▁airtight	-10.9048
▁sushi	-10.9048
▁fascinated	-10.9049
▁captured	-10.9051
▁playlist	-10.9053
▁fi	-10.9054
▁hall	-10.9057
fish	-10.9058
▁Most	-10.9059
▁addressed	-10.9059
ral	-10.9061
▁Wood	-10.9066
▁award	-10.9067
run	-10.9068
load	-10.9069
▁Bill	-10.907
▁lo	-10.9071
▁ear	-10.9071
▁Human	-10.9072
optional	-10.9072
▁impossible	-10.9073
▁Conduct	-10.9073
▁burst	-10.9076
sis	-10.9076
ik	-10.9079
▁confront	-10.9081
▁el	-10.9082
▁climb	-10.9086
try	-10.9088
cle	-10.9089
▁Enter	-10.9089
▁experimenting	-10.909
sort	-10.9095
▁Elizabeth	-10.9098
▁tackle	-10.9098
▁whipped	-10.9098
▁Mag	-10.9103
▁bands	-10.9106
gy	-10.9107
▁cable	-10.9107
▁Ed	-10.9109
SS	-10.9109
▁substance	-10.911
▁percent	-10.9111
▁sensation	-10.9111
themed	-10.9112
▁Regular	-10.9127
▁Bank	-10.9129
75	-10.9131
▁folk	-10.9131
▁depicted	-10.9131
▁relevance	-10.9135
▁statistical	-10.9135
ound	-10.9144
▁Hold	-10.9147
▁faculty	-10.9148
▁strawberries	-10.9148
▁milestone	-10.9149
▁metaphor	-10.9153
Array	-10.9159
▁extension	-10.916
ep	-10.9162
');	-10.9163
▁authority	-10.9166
▁sold	-10.9168
talk	-10.9172
▁irrigation	-10.9173
▁thrilling	-10.9175
▁Indigenous	-10.9176
▁mashed	-10.9179
mark	-10.918
▁vacation	-10.9185
ani	-10.9187
▁radius	-10.9191
▁(20	-10.9197
▁sensations	-10.9197
▁protocols	-10.9198
▁Russia	-10.9204
▁Cu	-10.9208
▁Plus	-10.9208
▁Oliver	-10.9213
▁guard	-10.9217
▁reminders	-10.922
▁IT	-10.922
▁portfolio	-10.9223
mit	-10.9226
▁Peter	-10.9227
▁continuous	-10.9228
▁60	-10.9231
▁Services	-10.9237
rick	-10.9245
▁puzzles	-10.9247
ok	-10.9248
▁symphony	-10.9248
▁worn	-10.9248
▁cotton	-10.9248
yl	-10.9248
eo	-10.9249
front	-10.925
▁Qu	-10.9254
▁grain	-10.9259
▁independence	-10.9261
▁testimonials	-10.9261
▁expedition	-10.9274
▁palette	-10.9274
▁graduate	-10.9274
▁venue	-10.9278
▁Land	-10.9279
▁Ke	-10.9283
▁shooting	-10.9285
▁invitation	-10.9286
▁blocks	-10.9287
▁rescue	-10.9291
▁Min	-10.9292
▁fried	-10.9292
▁immerse	-10.9295
▁youth	-10.9305
▁curse	-10.9305
ix	-10.9311
▁mysterious	-10.9312
▁innovations	-10.9321
▁Simply	-10.9324
▁customizable	-10.9324
▁widespread	-10.9324
▁shake	-10.9325
▁driven	-10.9329
▁photographs	-10.933
▁tiny	-10.9331
made	-10.9333
ica	-10.9335
▁specify	-10.9337
▁timing	-10.9337
▁Han	-10.9342
bit	-10.9351
IN	-10.9352
▁paths	-10.9353
cut	-10.9353
▁positions	-10.9356
ces	-10.9359
▁amounts	-10.9361
▁gets	-10.9362
ock	-10.9367
▁pitch	-10.937
▁tab	-10.9373
▁entered	-10.9374
▁intellectual	-10.9376
PS	-10.9376
▁victims	-10.9378
▁Security	-10.9378
▁zone	-10.9384
▁surveys	-10.9385
▁sexual	-10.9389
▁chances	-10.9395
");	-10.9395
▁confirmed	-10.9396
▁wheel	-10.9397
▁loyal	-10.9401
▁blending	-10.9401
▁General	-10.9402
▁Men	-10.9403
▁Pat	-10.9408
ras	-10.9408
▁Ocean	-10.9411
▁2020	-10.9416
▁seamless	-10.9419
zz	-10.9424
▁Williams	-10.9424
code	-10.9427
▁salads	-10.9429
▁pose	-10.9432
dra	-10.9432
▁domain	-10.9439
▁picnic	-10.944
▁Prime	-10.944
40	-10.9441
▁ripe	-10.9441
▁Port	-10.9447
link	-10.9447
▁battles	-10.9449
af	-10.9449
▁sale	-10.945
▁operate	-10.9454
▁Patel	-10.9455
▁hash	-10.9457
▁worry	-10.9458
▁herb	-10.9458
▁Ava	-10.9462
ox	-10.9465
ED	-10.9466
▁landscapes	-10.9471
▁bin	-10.9471
▁breast	-10.9473
▁Exercise	-10.9479
▁securing	-10.9479
▁Spain	-10.948
▁says	-10.9485
▁ratio	-10.949
▁auto	-10.9491
▁detective	-10.9494
class	-10.9498
▁fees	-10.9498
▁treating	-10.9499
▁reminded	-10.9502
▁relaxed	-10.9504
yo	-10.9504
▁JavaScript	-10.9505
arian	-10.9512
▁browser	-10.9516
▁renowned	-10.9517
▁donations	-10.9526
▁opinion	-10.9526
▁Hindu	-10.9529
▁clarify	-10.953
▁footage	-10.9532
▁filters	-10.9536
night	-10.9538
▁More	-10.9541
▁emotionally	-10.9543
▁Thomas	-10.9543
▁scenic	-10.9543
▁poet	-10.9547
▁civilizations	-10.9548
▁Che	-10.9549
▁Par	-10.9549
ake	-10.9554
▁Egyptian	-10.9554
▁kingdom	-10.9557
▁election	-10.9557
▁transformative	-10.9557
▁limits	-10.9559
rated	-10.9562
▁opt	-10.9566
sen	-10.9569
▁lid	-10.9569
▁sparked	-10.9573
▁routines	-10.9575
▁Combine	-10.9581
▁resonates	-10.9582
▁sat	-10.9582
▁arrested	-10.9583
▁navigating	-10.9583
▁cider	-10.9583
▁thread	-10.9583
▁newsletter	-10.9583
iff	-10.9585
▁Communication	-10.9587
▁Call	-10.9588
▁Color	-10.9592
python	-10.9596
▁Unfortunately	-10.9596
▁cocoa	-10.9596
tle	-10.9599
▁setbacks	-10.9605
▁missions	-10.9605
pos	-10.9605
▁oregano	-10.9609
▁loud	-10.961
ken	-10.9612
▁Sand	-10.9615
▁victim	-10.9619
▁empire	-10.9622
▁division	-10.9622
▁noted	-10.9622
▁prep	-10.9623
zi	-10.9624
5%	-10.9627
▁medication	-10.9633
▁rosemary	-10.9635
▁Night	-10.9637
AT	-10.964
▁alleged	-10.9643
▁promotes	-10.9648
COVID	-10.9648
▁walked	-10.9654
▁peak	-10.9657
verse	-10.9659
▁spark	-10.966
▁Locate	-10.9662
80	-10.9664
▁Bre	-10.9666
▁pinch	-10.9666
▁Gar	-10.9671
page	-10.9672
▁credibility	-10.9675
▁Guide	-10.9679
how	-10.9682
▁45	-10.9684
▁schedules	-10.9685
▁Martin	-10.9689
rin	-10.9693
▁committee	-10.9701
▁Jesus	-10.9701
▁glue	-10.9701
▁fla	-10.9703
▁appeared	-10.9704
▁magnetic	-10.9707
▁retrieve	-10.9714
▁Fire	-10.9716
lock	-10.972
▁smoke	-10.9721
▁ranging	-10.9728
gin	-10.9728
▁Brand	-10.973
▁paying	-10.9734
wo	-10.9735
▁virus	-10.9738
▁labels	-10.9739
▁dogs	-10.974
lam	-10.9747
▁verse	-10.9748
vid	-10.9755
▁mold	-10.9756
▁0.	-10.9761
ec	-10.9762
provoking	-10.9767
▁resilient	-10.9767
▁vocabulary	-10.9767
▁hub	-10.9768
ctor	-10.977
▁counseling	-10.9771
▁earthy	-10.9771
ense	-10.9778
▁Cat	-10.9779
▁purchases	-10.9788
▁Analytics	-10.9794
▁gravitational	-10.9794
▁broad	-10.9797
▁fits	-10.9797
▁interpret	-10.9798
14	-10.9799
▁peer	-10.9803
Ch	-10.9804
▁subscription	-10.9808
▁unwavering	-10.9808
▁Ac	-10.9808
▁melt	-10.9809
▁ships	-10.981
▁Sh	-10.9814
edge	-10.9816
▁bacteria	-10.9818
▁Learn	-10.9823
▁physically	-10.9824
▁Throughout	-10.9824
▁2)	-10.9824
▁fuels	-10.9824
lea	-10.9825
base	-10.9827
▁demographics	-10.9827
▁stretching	-10.9829
▁net	-10.9835
▁stating	-10.9836
▁breakdown	-10.9836
▁debate	-10.9837
▁Sustainable	-10.984
▁inch	-10.9841
▁wines	-10.9842
▁🌍	-10.9842
▁mine	-10.9843
face	-10.9846
▁Discuss	-10.9848
▁engineers	-10.9853
▁compost	-10.9853
▁millions	-10.9853
▁grade	-10.9855
▁controlled	-10.9855
+=	-10.9857
▁shots	-10.986
▁grasp	-10.9861
▁5:	-10.9862
▁posted	-10.9863
▁Cross	-10.9864
▁attractive	-10.9866
▁rack	-10.9871
▁employ	-10.9872
▁fold	-10.9874
▁December	-10.9875
▁wisdom	-10.9875
▁Line	-10.9883
▁neuro	-10.9883
▁Live	-10.9887
▁Break	-10.9887
ld	-10.9887
▁completion	-10.9888
▁pineapple	-10.9888
▁trapped	-10.9888
He	-10.9889
OS	-10.9899
▁protected	-10.9906
▁rapid	-10.9908
▁Office	-10.9911
TA	-10.9914
▁hearty	-10.9914
AN	-10.9919
▁balls	-10.9924
▁Arts	-10.9927
▁produces	-10.993
▁cocktail	-10.9932
des	-10.9939
▁bubble	-10.9942
▁mentorship	-10.9943
▁Sub	-10.9945
▁Special	-10.9946
pur	-10.9949
ography	-10.995
ava	-10.9951
▁accepted	-10.9951
▁cout	-10.9952
▁worship	-10.9955
▁captivating	-10.9956
RO	-10.9959
▁temp	-10.9959
▁overcame	-10.9969
▁ham	-10.9971
▁Two	-10.9971
bro	-10.9973
▁colonial	-10.9975
▁hole	-10.9979
▁wellbeing	-10.9981
▁observations	-10.9981
▁Creating	-10.9983
▁addresses	-10.9984
▁chair	-10.9988
NA	-10.9988
▁cart	-10.9989
▁Jewish	-10.9997
▁Va	-10.9999
color	-11.0006
▁complements	-11.0006
19	-11.0009
▁proceed	-11.001
▁Dutch	-11.001
▁reliability	-11.001
▁delete	-11.0016
▁manufacturer	-11.0017
▁talked	-11.0021
▁HTML	-11.0021
▁Main	-11.0029
hold	-11.0032
</	-11.0033
war	-11.0037
▁pump	-11.0038
▁seasonings	-11.0041
▁personalities	-11.0044
▁towel	-11.0045
she	-11.0045
stick	-11.0046
▁throw	-11.0054
▁profiles	-11.0063
▁restore	-11.0064
▁dancing	-11.0065
▁query	-11.0066
ore	-11.0068
▁researching	-11.0069
▁12.	-11.0071
▁tag	-11.0072
▁Berlin	-11.0079
▁saved	-11.0084
▁signals	-11.0086
▁bone	-11.0086
case	-11.0087
Number	-11.0093
▁wander	-11.0093
▁shed	-11.0095
▁coral	-11.0097
▁tart	-11.0098
▁Lena	-11.0099
▁tested	-11.0102
▁god	-11.0102
hen	-11.0103
▁modifications	-11.0103
▁Christ	-11.0105
American	-11.0106
▁distinctive	-11.0108
ook	-11.0109
▁forests	-11.0113
▁favor	-11.0118
▁Challenge	-11.0119
▁gym	-11.012
▁bi	-11.0126
▁otherwise	-11.0126
ridge	-11.0127
▁Though	-11.013
▁tricks	-11.0134
▁Davis	-11.0134
▁timely	-11.0139
catching	-11.0141
▁Lila	-11.0143
▁packed	-11.0146
▁experimental	-11.0153
▁household	-11.0156
▁plane	-11.0157
▁expressions	-11.0157
key	-11.0157
▁mobility	-11.0162
▁societies	-11.0162
▁floral	-11.0163
▁scholars	-11.0167
▁minimalist	-11.0168
▁tropical	-11.0175
▁rolls	-11.0178
ern	-11.0179
▁airport	-11.0179
vol	-11.0184
▁overnight	-11.0184
bor	-11.0187
▁noting	-11.0187
▁fundraising	-11.0189
▁Catholic	-11.0189
▁evil	-11.019
▁crowd	-11.0192
▁recover	-11.0195
▁icon	-11.0198
▁safely	-11.02
▁apartment	-11.0201
▁actionable	-11.0202
▁Math	-11.0203
▁Richard	-11.0203
▁consume	-11.0204
▁Access	-11.0209
▁rapidly	-11.0211
▁Hy	-11.0213
▁gap	-11.0214
▁affirmations	-11.0217
▁basket	-11.0219
▁Watch	-11.0219
▁segment	-11.0224
▁consult	-11.0226
▁bottles	-11.0227
rack	-11.0229
▁Apply	-11.0238
logy	-11.0239
▁delivered	-11.0242
▁casual	-11.0245
▁Sprinkle	-11.0245
AP	-11.0245
▁charging	-11.0245
▁upload	-11.0246
▁Why	-11.0247
▁Medical	-11.0255
▁editor	-11.0257
▁Natural	-11.0259
nova	-11.026
▁relations	-11.0264
frame	-11.0265
berg	-11.0266
ball	-11.0267
▁passengers	-11.0267
▁vote	-11.027
fin	-11.0271
▁Alternatively	-11.0275
▁Under	-11.0276
▁coordinate	-11.028
|	-11.0283
rop	-11.0289
▁Display	-11.029
▁drinking	-11.0292
rant	-11.0292
▁surfaces	-11.0293
ros	-11.0293
▁cooling	-11.0293
▁invalid	-11.0295
▁et	-11.0295
▁adjusting	-11.0297
▁reaction	-11.0298
horn	-11.0299
▁Britain	-11.0301
▁collective	-11.0303
rr	-11.0305
▁substantial	-11.0307
▁mutual	-11.0308
No	-11.0311
ude	-11.0316
▁Yoga	-11.0316
▁officers	-11.0316
ui	-11.0316
2,	-11.0321
▁recording	-11.0324
▁shore	-11.0326
▁gathered	-11.0327
▁simulate	-11.0329
▁typography	-11.0329
▁queries	-11.0329
▁formats	-11.033
▁Battle	-11.033
▁beaches	-11.033
▁23	-11.0337
▁monthly	-11.0342
▁classrooms	-11.0343
▁strive	-11.0345
▁dating	-11.0347
▁Ab	-11.0359
▁drawn	-11.0361
▁contributes	-11.0362
Pro	-11.0362
▁alike	-11.0364
▁marks	-11.0371
changer	-11.0372
▁Fish	-11.0372
▁sacrifice	-11.0373
▁Fund	-11.0379
▁Self	-11.0381
▁disrupt	-11.0381
▁describing	-11.0386
▁ended	-11.0392
▁Eco	-11.0395
▁discovers	-11.0397
▁Warm	-11.0398
▁Hospital	-11.04
▁retreat	-11.04
▁geological	-11.04
▁crafts	-11.04
▁defend	-11.04
▁calculates	-11.0401
▁scope	-11.0401
▁Ph	-11.0403
▁abandoned	-11.0405
▁delivering	-11.0411
":	-11.0414
▁February	-11.0414
▁necklace	-11.0414
▁transparency	-11.0414
▁Gold	-11.0416
scape	-11.0417
exp	-11.0419
▁actual	-11.0422
ches	-11.0424
▁pests	-11.0425
▁underscores	-11.0428
▁diabetes	-11.0428
paced	-11.0429
▁multimedia	-11.0429
mile	-11.0429
▁eliminate	-11.0432
▁authors	-11.0432
▁Economic	-11.0434
▁keyword	-11.0436
▁$2	-11.0437
-20	-11.0441
▁administration	-11.0443
▁sometime	-11.0443
▁Forest	-11.0443
▁cave	-11.0446
hood	-11.0446
▁anywhere	-11.0448
▁Sal	-11.045
▁contacts	-11.0451
▁marriage	-11.0457
▁vector	-11.0457
▁teeth	-11.0459
▁modes	-11.046
▁honest	-11.0464
▁Cur	-11.0464
▁rush	-11.0465
▁Bri	-11.0465
cr	-11.0465
▁Master	-11.0469
duct	-11.047
00,000	-11.0474
▁tail	-11.0478
▁mat	-11.048
▁decorations	-11.0483
tel	-11.0484
div	-11.0485
16	-11.0485
▁Chicken	-11.0486
▁Recipe	-11.0486
▁diving	-11.0486
cus	-11.049
ene	-11.0499
▁pastry	-11.0499
▁Florida	-11.05
▁existence	-11.05
generated	-11.0506
▁flu	-11.0511
▁carrying	-11.0511
▁stroke	-11.0513
carb	-11.0515
▁successes	-11.0524
▁amenities	-11.0529
▁Pu	-11.0529
▁eerie	-11.053
▁appliances	-11.0541
▁port	-11.0543
▁struck	-11.0543
bed	-11.0544
▁LED	-11.0544
▁dimensions	-11.055
ied	-11.0554
▁fell	-11.0554
▁Roast	-11.0556
▁oxygen	-11.0557
▁accountability	-11.056
▁Dar	-11.0562
▁trials	-11.0562
van	-11.0562
▁deepen	-11.0563
▁Prince	-11.0563
▁crash	-11.0563
▁joined	-11.0564
▁clouds	-11.0566
▁jam	-11.0566
▁Monitor	-11.0567
▁Mor	-11.0567
rad	-11.0572
▁drain	-11.0572
▁500-	-11.0572
▁flying	-11.0573
▁hint	-11.0573
▁Korean	-11.0578
▁Army	-11.0578
pu	-11.0584
mes	-11.0585
▁puzzle	-11.0588
▁graph	-11.0594
pla	-11.0595
▁resonate	-11.0598
▁sorting	-11.0599
aries	-11.0599
▁Brazil	-11.0599
▁adventures	-11.06
▁hobbies	-11.0601
▁purple	-11.0601
▁conserve	-11.0601
ening	-11.0601
▁char	-11.0604
▁meditations	-11.0606
▁Muslim	-11.0615
▁satellite	-11.0615
▁haunted	-11.0619
▁stumbled	-11.0622
▁lu	-11.0624
▁facial	-11.063
▁removed	-11.063
IC	-11.0633
▁placement	-11.0633
▁Connect	-11.0635
▁proven	-11.0637
▁alter	-11.0638
▁Tu	-11.0648
▁peas	-11.0649
▁Print	-11.0649
cro	-11.0654
▁managers	-11.0657
▁stuck	-11.0659
▁geometry	-11.0659
test	-11.0662
▁listeners	-11.0665
ON	-11.0667
▁Content	-11.0667
lip	-11.0668
It	-11.0668
▁var	-11.0671
▁Mer	-11.0674
▁Bob	-11.0675
▁subscribers	-11.0676
tha	-11.0678
▁validation	-11.0679
▁Wo	-11.0683
esteem	-11.0688
▁acquisition	-11.0688
▁carried	-11.0688
▁Adjust	-11.0688
▁pi	-11.0688
▁hop	-11.069
lay	-11.069
▁massage	-11.069
▁bun	-11.0692
▁adaptation	-11.0698
▁comparing	-11.0703
mag	-11.0709
▁accountable	-11.071
▁keeps	-11.0712
▁institution	-11.0713
▁candidate	-11.0722
▁withstand	-11.0725
▁Rose	-11.0726
▁branch	-11.0728
▁singing	-11.0731
▁drawbacks	-11.0732
▁resume	-11.0733
▁adult	-11.0737
▁represented	-11.074
▁sights	-11.074
▁claim	-11.0741
tar	-11.0743
▁luxurious	-11.0747
▁television	-11.0747
▁Garlic	-11.0747
PA	-11.0749
▁directions	-11.0753
yn	-11.0755
▁intrigued	-11.0755
▁estimate	-11.0756
▁Raj	-11.0758
▁cur	-11.0759
▁arrived	-11.0764
ado	-11.0766
▁obstacle	-11.0766
▁Fo	-11.0769
▁watched	-11.077
▁exam	-11.0782
▁loan	-11.0784
Po	-11.0785
▁clues	-11.0789
▁Information	-11.0791
▁foil	-11.0791
▁priorities	-11.0791
▁tu	-11.0791
▁mansion	-11.0791
place	-11.0793
▁26	-11.0804
Of	-11.0807
ending	-11.0811
▁Personal	-11.0811
▁solo	-11.0813
lia	-11.0814
▁Com	-11.0815
"?	-11.082
▁decades	-11.0822
ched	-11.0824
rie	-11.0829
▁Sta	-11.0837
br	-11.0839
▁sandwiches	-11.0842
▁tags	-11.0843
▁Games	-11.0843
▁burgers	-11.0845
gue	-11.0845
▁Mindful	-11.0849
je	-11.0852
▁Jackson	-11.0853
▁Address	-11.0855
-2	-11.0855
Be	-11.0856
▁counts	-11.0856
▁acts	-11.0858
ano	-11.0861
▁Ge	-11.0861
▁Tea	-11.0864
▁talks	-11.0866
ima	-11.0867
▁Conservation	-11.0868
▁ring	-11.0871
▁Video	-11.0874
▁nail	-11.088
▁dangers	-11.0884
▁topped	-11.0886
▁colleague	-11.0887
▁Tre	-11.089
tz	-11.0893
▁Amelia	-11.0895
▁entrepreneurs	-11.0895
▁statue	-11.0895
▁Back	-11.0903
craft	-11.0904
ways	-11.0905
▁streamline	-11.0906
iz	-11.0907
▁vinaigrette	-11.091
▁ecological	-11.091
▁PHP	-11.091
▁Down	-11.091
ache	-11.0911
▁unusual	-11.0912
▁chia	-11.0916
fu	-11.0918
▁construct	-11.092
▁designer	-11.0922
▁circuit	-11.0925
▁resist	-11.0925
▁claimed	-11.0926
▁audit	-11.0933
▁Title	-11.0936
▁accomplishments	-11.0939
▁presentations	-11.094
▁bloom	-11.0942
ski	-11.0942
▁harder	-11.0944
▁Bell	-11.0945
▁28	-11.0947
▁prize	-11.0949
▁Comp	-11.0949
▁fingers	-11.095
▁venture	-11.0954
dding	-11.0955
▁uncertainty	-11.0955
▁sole	-11.0957
▁refer	-11.0958
▁parking	-11.0961
din	-11.0963
^	-11.0966
200	-11.0967
▁glimpse	-11.0969
▁sculptures	-11.0971
ges	-11.0973
ax	-11.0975
▁senior	-11.0979
▁concert	-11.0979
▁magazine	-11.0979
▁separated	-11.0981
▁raising	-11.0985
▁theories	-11.0985
▁200	-11.0986
▁assign	-11.0989
▁par	-11.099
▁reaches	-11.0993
▁milestones	-11.0998
insert	-11.0998
▁strips	-11.0998
MI	-11.1
▁wake	-11.1004
cap	-11.1007
▁army	-11.101
▁Head	-11.1011
oid	-11.1011
▁smoky	-11.1015
▁Rice	-11.1019
▁fabrics	-11.102
▁aiming	-11.102
▁undergo	-11.1022
▁comedy	-11.1023
▁doubt	-11.1024
▁forecast	-11.1026
resistant	-11.1028
▁letting	-11.1029
▁Palace	-11.103
▁zest	-11.1031
17	-11.1032
rk	-11.1045
▁radiation	-11.1046
▁leverag	-11.1049
▁painted	-11.1049
▁origins	-11.1051
▁template	-11.1056
▁registration	-11.106
▁lighter	-11.1061
▁bills	-11.1064
▁ties	-11.1065
▁std	-11.1067
▁gravity	-11.1068
▁trans	-11.1069
▁Explore	-11.107
▁proteins	-11.1075
▁balsamic	-11.1075
▁enemies	-11.1075
▁longest	-11.1088
▁donation	-11.109
Ro	-11.109
▁okay	-11.109
▁costumes	-11.1093
▁particles	-11.1096
▁lamb	-11.1101
▁Without	-11.1101
bel	-11.1102
▁shoulder	-11.1105
▁glaze	-11.1106
▁Prompt	-11.1106
▁fusion	-11.1112
▁donate	-11.1113
▁orders	-11.1115
▁distant	-11.1121
▁trips	-11.1123
ians	-11.1125
▁meats	-11.1129
▁spin	-11.1132
add	-11.1135
▁Scottish	-11.1137
ties	-11.1144
▁traits	-11.1145
▁houses	-11.1159
▁Ski	-11.1161
▁merge	-11.1165
▁automated	-11.1166
▁cuts	-11.1168
▁formatting	-11.1172
▁drivers	-11.1175
EC	-11.1179
▁seating	-11.1181
▁Stone	-11.1182
▁adversity	-11.1182
▁heartfelt	-11.1182
▁Sincerely	-11.1182
▁hurt	-11.1182
illa	-11.1187
▁girls	-11.1187
▁moves	-11.1187
ato	-11.1188
▁coating	-11.1195
del	-11.1195
▁Cheese	-11.1198
▁hide	-11.1198
▁humanity	-11.1198
▁jacket	-11.1201
▁flag	-11.1206
▁fulfilling	-11.1209
Sustainability	-11.1213
▁Zealand	-11.1213
▁Solutions	-11.1215
▁waterfall	-11.1216
▁Fill	-11.1217
▁scenery	-11.122
▁bomb	-11.1222
▁uncovered	-11.1222
▁acceptance	-11.1228
▁advocacy	-11.1228
▁serene	-11.1228
▁understood	-11.1228
▁confusion	-11.1229
▁birthday	-11.1229
▁underground	-11.123
▁Adam	-11.123
▁submitting	-11.1231
▁pesto	-11.1231
ote	-11.1235
▁composting	-11.1236
▁adopted	-11.1239
▁comprehension	-11.1244
▁pine	-11.1245
▁Hall	-11.1249
▁frosting	-11.1253
▁cursed	-11.1253
▁promise	-11.1254
▁washing	-11.1258
win	-11.1259
▁clock	-11.126
▁trace	-11.126
▁float	-11.1262
DA	-11.1264
▁clip	-11.1264
ome	-11.1267
▁awards	-11.1271
▁Manager	-11.1273
▁silence	-11.1275
▁cord	-11.1275
ised	-11.1279
▁consumed	-11.1282
month	-11.1289
▁vulnerability	-11.129
▁enhances	-11.1297
▁describes	-11.13
AC	-11.1302
▁hanging	-11.1306
▁circular	-11.1306
▁vocal	-11.1306
▁discusses	-11.1307
ule	-11.1308
▁leftover	-11.1309
1)	-11.1317
▁Wa	-11.1324
,”	-11.1325
▁burning	-11.1325
▁Tree	-11.1328
▁possess	-11.1334
▁pursuit	-11.1337
▁District	-11.1337
▁Ottoman	-11.1337
▁cardiovascular	-11.1337
▁Install	-11.1337
▁bravery	-11.1338
▁mango	-11.1342
▁motifs	-11.1344
▁loose	-11.1345
▁stones	-11.1352
▁eggplant	-11.1353
13	-11.1355
▁Mountain	-11.1359
▁seeks	-11.1361
▁accused	-11.1362
ame	-11.1363
▁Elementary	-11.1363
▁connectivity	-11.1369
▁careers	-11.1371
LI	-11.1382
La	-11.1383
▁diagrams	-11.1383
▁gifts	-11.1383
▁Drizzle	-11.1384
▁fragrant	-11.1384
▁100%	-11.1385
▁spoken	-11.1392
800	-11.1393
▁Meditation	-11.1399
▁capturing	-11.1399
▁transactions	-11.1399
▁Where	-11.14
▁factorial	-11.1401
▁Pri	-11.1401
▁simulation	-11.1401
▁criticized	-11.1404
▁sink	-11.1407
bound	-11.1408
chan	-11.141
▁Library	-11.141
▁Ya	-11.1415
▁Mental	-11.1415
▁por	-11.1425
000	-11.1427
▁horizon	-11.143
▁Charles	-11.1431
▁2021	-11.1432
▁crackers	-11.1436
▁investments	-11.1437
▁fewer	-11.1438
discovery	-11.1439
▁fixed	-11.1441
AL	-11.1444
hose	-11.1446
Taking	-11.1451
▁modeling	-11.1453
zy	-11.1455
▁fonts	-11.1458
▁Definitely	-11.1462
▁grief	-11.1462
▁hybrid	-11.1462
▁Volunteer	-11.1462
5,000	-11.1463
▁Sir	-11.1464
range	-11.1466
▁underwater	-11.1468
▁coaches	-11.1469
cia	-11.1469
▁pe	-11.1471
LE	-11.1472
▁coordination	-11.1478
▁fluffy	-11.1478
▁dashboard	-11.1478
ison	-11.1479
max	-11.1479
▁mistake	-11.1482
▁swap	-11.1483
▁slip	-11.1483
▁seamlessly	-11.1487
xi	-11.1491
▁-1	-11.1496
▁poster	-11.1496
▁acid	-11.1496
BC	-11.1504
party	-11.1504
▁talented	-11.151
▁Silk	-11.151
▁fought	-11.151
▁shorter	-11.1511
▁blues	-11.1513
ult	-11.1515
▁belonging	-11.1518
▁semi	-11.152
▁crumbled	-11.152
col	-11.1522
▁royal	-11.1526
▁corruption	-11.1527
▁distributed	-11.1528
▁Nut	-11.153
▁journalist	-11.1531
▁approaching	-11.1534
▁Event	-11.1534
▁officer	-11.1536
▁afford	-11.1539
▁Louis	-11.1541
▁argue	-11.1542
▁keynote	-11.1543
ace	-11.1546
++)	-11.1547
▁charm	-11.155
▁cherish	-11.1557
▁Qui	-11.1559
▁suffering	-11.1561
▁mechanism	-11.1562
factor	-11.1563
▁textiles	-11.1563
▁Examples	-11.1566
▁haunting	-11.1567
▁digit	-11.1568
▁cakes	-11.157
▁placing	-11.1573
▁chemicals	-11.1589
▁granola	-11.1589
▁coast	-11.1591
▁String	-11.1595
▁Solar	-11.1599
IS	-11.1601
cher	-11.1605
▁register	-11.1605
▁council	-11.1605
▁execution	-11.1605
▁worried	-11.1605
▁domestic	-11.1605
▁nutty	-11.1606
▁News	-11.1607
▁hosts	-11.1608
▁equally	-11.1608
▁walnuts	-11.1609
▁ratings	-11.161
▁Well	-11.1613
Improved	-11.1616
▁doctor	-11.162
▁augmented	-11.1621
wear	-11.1622
▁palindrome	-11.1622
▁Visitors	-11.1622
SD	-11.1627
▁🚀	-11.1629
▁coated	-11.163
▁Korea	-11.1631
▁actors	-11.1631
▁Ce	-11.1631
source	-11.1633
▁titles	-11.1637
▁viewer	-11.1637
▁replacement	-11.1645
0°	-11.1646
▁translate	-11.165
▁employers	-11.1652
Un	-11.1652
▁studied	-11.1654
▁varieties	-11.1654
▁memoir	-11.1654
▁static	-11.1655
▁Angeles	-11.1656
▁Happy	-11.1658
ture	-11.1662
▁Run	-11.1667
▁Hav	-11.1667
▁reserve	-11.1668
▁premium	-11.167
ram	-11.167
▁2008	-11.1671
▁outlines	-11.1671
▁Materials	-11.1672
▁assessments	-11.1674
▁spreading	-11.1674
▁titled	-11.1677
▁attempts	-11.1678
▁adapting	-11.168
▁symbolic	-11.168
▁yesterday	-11.1686
▁Modern	-11.1686
▁tear	-11.1688
▁browned	-11.1689
erie	-11.1694
Mi	-11.1696
▁whatever	-11.1699
▁laptop	-11.1702
▁firsthand	-11.1707
▁skincare	-11.1708
lot	-11.1709
▁Shakespeare	-11.1709
ncorporating	-11.1717
▁triumph	-11.1718
▁Yeah	-11.1718
▁happens	-11.1721
oon	-11.1721
▁concerning	-11.1724
▁flood	-11.1725
▁tissue	-11.1726
▁Game	-11.1729
▁balancing	-11.1734
▁su	-11.1735
▁Describe	-11.1735
igh	-11.1735
self	-11.1735
45	-11.1736
▁Dark	-11.1737
▁outbreak	-11.174
don	-11.174
tas	-11.1749
▁directed	-11.175
ended	-11.175
▁reflected	-11.175
▁expanded	-11.1752
▁packages	-11.1753
ale	-11.1757
▁judgment	-11.1758
▁doors	-11.1763
▁nose	-11.1765
▁Barcelona	-11.1767
▁Clear	-11.1767
love	-11.1768
▁Tim	-11.1771
▁enabled	-11.1772
▁payments	-11.1773
array	-11.1778
▁tables	-11.1779
▁cyber	-11.1783
▁psychology	-11.1783
▁assault	-11.1783
01	-11.1784
▁Search	-11.1786
ush	-11.1787
▁continuously	-11.1793
▁Law	-11.1795
▁agents	-11.1798
▁Town	-11.18
ugh	-11.18
▁except	-11.1802
dent	-11.1803
▁occasion	-11.1803
sub	-11.1804
ek	-11.1804
CC	-11.1811
21	-11.1813
▁praised	-11.1814
▁lively	-11.1814
▁papers	-11.1815
▁Greece	-11.1816
▁opposition	-11.1816
▁27	-11.1817
ground	-11.1819
Journal	-11.1826
▁feathers	-11.1828
▁grip	-11.183
▁toys	-11.183
▁candy	-11.1832
ologist	-11.1834
ender	-11.1834
▁seasons	-11.1837
▁printed	-11.1838
ou	-11.1841
▁canned	-11.1841
wick	-11.1845
▁digits	-11.1845
▁organizers	-11.1845
zen	-11.1847
▁prayer	-11.1847
▁mozzarella	-11.1848
▁compatible	-11.1849
NC	-11.1854
!!!	-11.1854
ele	-11.1856
▁collections	-11.1858
▁smartphone	-11.186
order	-11.1861
▁Card	-11.1862
▁mut	-11.1865
▁prioritizing	-11.1865
▁reservation	-11.1865
▁Georgia	-11.1865
▁piano	-11.1865
▁Stand	-11.1866
cur	-11.1866
▁walks	-11.1867
▁tickets	-11.1868
▁angles	-11.1869
▁Dan	-11.1869
pri	-11.1873
▁toward	-11.1878
▁Opera	-11.188
▁erosion	-11.1881
▁queue	-11.1882
▁Saint	-11.1883
▁arrest	-11.1884
ars	-11.1885
Value	-11.1892
▁Cultural	-11.1897
▁aligned	-11.1897
▁Professor	-11.1898
▁loading	-11.1903
▁lies	-11.1907
▁tape	-11.1912
▁distances	-11.1912
▁unnecessary	-11.1914
▁enrich	-11.1915
▁graphs	-11.1916
▁beads	-11.1917
eat	-11.1924
▁woods	-11.1926
▁candidates	-11.1926
▁processed	-11.1931
▁integrity	-11.1931
▁foam	-11.1931
▁proactive	-11.1931
▁batteries	-11.1933
▁demo	-11.1935
▁Fair	-11.1935
▁fee	-11.1938
wan	-11.1938
▁Tro	-11.1938
▁conversions	-11.1939
▁relie	-11.194
▁Fall	-11.1944
▁Writing	-11.1944
▁arrive	-11.1946
▁sprouts	-11.1947
▁substitutions	-11.1948
Increased	-11.1954
▁sin	-11.1954
▁suffered	-11.1957
▁Low	-11.1957
▁sectors	-11.1958
▁0)	-11.1959
ju	-11.196
▁operator	-11.196
fri	-11.1963
ject	-11.1963
▁Sydney	-11.1964
▁cauliflower	-11.1964
▁quest	-11.1966
ines	-11.197
▁drum	-11.1977
▁adequate	-11.1981
▁guarantee	-11.1981
▁mayonnaise	-11.1981
▁trading	-11.1981
▁bean	-11.1983
▁seasoned	-11.1983
▁employed	-11.1984
ivity	-11.1985
▁hat	-11.1995
▁cybersecurity	-11.1997
▁configuration	-11.1997
▁Je	-11.1999
▁workforce	-11.2001
▁shirt	-11.2002
▁Za	-11.2003
▁Women	-11.2003
oma	-11.2009
▁flights	-11.2011
▁attitude	-11.2011
▁stem	-11.2011
▁ticket	-11.2012
▁unforgettable	-11.2014
▁Partner	-11.2014
▁rustling	-11.2014
▁que	-11.2016
ette	-11.2016
Learning	-11.2016
dis	-11.2016
▁Pl	-11.2029
▁treats	-11.2029
user	-11.2031
▁leap	-11.2032
▁differentiate	-11.2032
▁lend	-11.2033
▁weigh	-11.2035
">	-11.2041
▁sauces	-11.2042
shaped	-11.2045
▁ownership	-11.2048
So	-11.2049
▁wa	-11.2049
▁senses	-11.2052
▁tent	-11.2059
Conservation	-11.2061
▁decade	-11.2062
▁fate	-11.2063
▁cha	-11.2064
▁laughter	-11.2065
▁buttons	-11.2069
SP	-11.2072
▁tip	-11.2075
▁boots	-11.2077
▁Excited	-11.2081
▁Turkey	-11.2081
▁varying	-11.2083
▁posture	-11.2085
▁tells	-11.2085
oli	-11.2087
▁Historical	-11.2087
▁increases	-11.2091
▁minds	-11.2096
▁Elena	-11.2098
▁thesis	-11.2098
▁Return	-11.2099
▁Photo	-11.2111
▁examine	-11.2112
▁cayenne	-11.2114
▁neural	-11.2115
▁exposed	-11.2115
▁infographics	-11.2118
▁finely	-11.2118
▁bay	-11.2119
▁north	-11.2122
NS	-11.2124
▁sticks	-11.2126
▁lately	-11.2127
using	-11.2128
▁scrub	-11.2131
check	-11.2132
▁rigorous	-11.2132
aging	-11.2141
▁smells	-11.2144
▁conversational	-11.2146
inflammatory	-11.2148
▁transparent	-11.2148
▁freeze	-11.2149
▁Mal	-11.2154
▁icons	-11.2155
present	-11.2158
▁participated	-11.2159
▁Leg	-11.2165
▁asparagus	-11.2165
▁lens	-11.217
▁discovering	-11.2171
▁poses	-11.2173
ough	-11.2176
▁URL	-11.2179
▁closure	-11.2182
▁tournament	-11.2182
▁tortilla	-11.2182
state	-11.2183
▁conscious	-11.2185
▁Mon	-11.2185
▁ob	-11.2187
SC	-11.219
▁z	-11.2192
▁($	-11.2195
▁weak	-11.2197
▁lit	-11.2197
▁hang	-11.2198
▁tears	-11.2198
▁basketball	-11.2199
▁accomplishment	-11.2201
▁newly	-11.2203
▁adopting	-11.2208
▁sudden	-11.2209
▁pad	-11.2209
rand	-11.2209
CA	-11.2209
▁folder	-11.2216
ulation	-11.2216
CS	-11.2216
▁romance	-11.2216
▁enemy	-11.2216
til	-11.2216
▁Coffee	-11.2233
oe	-11.2235
▁electronics	-11.2236
▁damp	-11.224
▁acids	-11.2246
▁distribute	-11.2247
▁tire	-11.2248
▁strip	-11.225
▁Dijon	-11.225
▁brilliant	-11.225
▁clay	-11.2251
▁2009	-11.2252
▁wealthy	-11.2252
▁Southern	-11.2252
▁del	-11.2262
▁treated	-11.2262
▁assignments	-11.2266
▁autumn	-11.2267
▁photosynthesis	-11.2267
▁freezer	-11.2275
▁roads	-11.2278
▁Renewable	-11.2284
▁nourish	-11.2284
▁dental	-11.2285
▁Nor	-11.2287
▁Bible	-11.2291
fat	-11.2294
▁locals	-11.2301
▁Soviet	-11.2302
▁policymakers	-11.2302
▁blanket	-11.2305
▁twisted	-11.2305
▁alien	-11.2306
▁Bu	-11.2315
▁punctuation	-11.2316
▁Engage	-11.2317
▁Determine	-11.2319
▁geography	-11.2319
▁injured	-11.2319
▁Butter	-11.2324
▁Contact	-11.2327
▁Does	-11.2327
▁versions	-11.233
▁personnel	-11.2331
▁breathe	-11.2331
▁Coconut	-11.2336
▁galleries	-11.2336
Exp	-11.2337
▁reverse	-11.2341
▁moist	-11.2345
met	-11.235
nal	-11.2351
▁Pop	-11.2352
▁Email	-11.2353
shop	-11.2353
▁Vo	-11.2353
▁dataset	-11.2355
▁celebrations	-11.2357
Ne	-11.2362
OR	-11.2363
pen	-11.2366
▁mining	-11.2374
▁sick	-11.2377
ledge	-11.2382
hal	-11.2386
▁pest	-11.2387
▁affiliate	-11.2388
▁although	-11.2388
▁bass	-11.239
▁Wild	-11.2391
▁drops	-11.2393
▁Sho	-11.2396
[]	-11.2397
▁Ly	-11.2397
▁setup	-11.2398
▁breaths	-11.2403
ction	-11.2404
▁Canadian	-11.2405
▁blueberries	-11.2406
▁explanations	-11.241
▁trigger	-11.2411
even	-11.2411
▁exhibitions	-11.2414
▁Toss	-11.2416
▁achievable	-11.2422
▁examining	-11.2422
▁steep	-11.2422
▁void	-11.2423
nie	-11.2424
▁surgery	-11.2424
▁lowercase	-11.2424
▁establishing	-11.2427
▁Party	-11.2429
▁casting	-11.2436
▁Narrator	-11.244
▁splash	-11.244
▁Heart	-11.2441
▁Wind	-11.2441
__	-11.2441
▁supplement	-11.2445
▁tribes	-11.2448
▁underscore	-11.2449
▁catchy	-11.2451
▁answers	-11.2454
▁ghost	-11.2455
▁frustration	-11.2457
▁horse	-11.2457
▁mac	-11.2463
▁anger	-11.2464
▁Put	-11.2465
bal	-11.2467
▁reforms	-11.2475
▁parchment	-11.2475
▁repetition	-11.2475
Do	-11.2479
▁Pet	-11.2487
urn	-11.2487
▁shoulders	-11.2487
arrow	-11.2489
▁BBQ	-11.2492
▁congestion	-11.2492
▁universal	-11.2492
▁blow	-11.2495
▁Training	-11.2497
▁Increase	-11.2503
.")	-11.2504
▁Seek	-11.2506
▁30-	-11.2507
▁crunchy	-11.2507
▁plates	-11.2509
▁unconventional	-11.251
▁generates	-11.2511
▁Body	-11.2512
▁burger	-11.2516
▁listed	-11.2518
sti	-11.2519
rian	-11.2521
▁rub	-11.2521
struct	-11.2526
▁monument	-11.2527
▁cues	-11.2527
include	-11.253
att	-11.2533
▁artifact	-11.2534
▁sourced	-11.2534
▁collaborated	-11.2537
▁suppliers	-11.2539
pin	-11.2549
▁south	-11.2549
▁poets	-11.2551
sharing	-11.2551
▁exception	-11.2553
▁imaging	-11.2562
▁polar	-11.2563
▁bounce	-11.2563
▁wet	-11.2568
▁approached	-11.2568
▁Anti	-11.2575
▁indicates	-11.2576
▁NASA	-11.258
weight	-11.2583
▁robots	-11.2587
▁Week	-11.2589
▁validate	-11.259
▁theoretical	-11.2598
▁unlock	-11.26
▁Way	-11.2609
▁banks	-11.2611
rust	-11.2611
▁Fla	-11.2614
▁advancing	-11.2615
▁galaxies	-11.2615
▁monster	-11.2615
▁chord	-11.2615
▁investigating	-11.2615
▁microwave	-11.2616
▁hook	-11.2616
▁signed	-11.2621
▁guilty	-11.2622
dict	-11.2623
▁tensions	-11.2624
▁detailing	-11.2624
▁dimension	-11.263
▁candles	-11.2631
▁unity	-11.2633
▁Ryan	-11.2635
▁Outro	-11.2635
▁tin	-11.2643
▁Golden	-11.2644
▁dr	-11.2644
html	-11.2651
▁scoop	-11.2651
▁tasting	-11.2651
▁textbook	-11.2653
▁fe	-11.2656
las	-11.2661
▁revolutionize	-11.2667
▁Marine	-11.2669
▁demonstrating	-11.2669
▁exceed	-11.2669
▁fraud	-11.2669
▁diagnosis	-11.2669
▁margin	-11.2669
▁designated	-11.267
▁distinguish	-11.2675
▁recorded	-11.2676
500	-11.268
▁climbing	-11.2681
▁beloved	-11.2687
▁tank	-11.2687
see	-11.2691
▁establishment	-11.27
®	-11.2704
▁juicy	-11.2704
▁Honey	-11.2705
▁Lincoln	-11.2706
▁Ancient	-11.2707
▁vaccine	-11.2715
▁puree	-11.272
▁companion	-11.2722
▁Companies	-11.2722
▁transmission	-11.2722
▁destroy	-11.2724
▁wireless	-11.2724
ced	-11.2725
▁molecules	-11.2725
▁complexities	-11.2727
▁planets	-11.2728
▁val	-11.273
tail	-11.2732
File	-11.2743
▁origin	-11.2748
▁immense	-11.2751
▁Mind	-11.2756
°	-11.2757
▁Android	-11.2758
▁corporate	-11.2758
▁thriving	-11.2758
▁Early	-11.2758
lines	-11.2761
▁voices	-11.2762
ula	-11.2762
▁Log	-11.2762
grain	-11.2765
▁35	-11.2765
▁yields	-11.2766
▁Electric	-11.277
▁bowls	-11.277
▁winds	-11.2772
▁parameters	-11.2773
▁IP	-11.2774
▁Aim	-11.2774
▁shoot	-11.2775
▁Fibonacci	-11.2776
▁Scotland	-11.2776
▁joke	-11.2777
▁bullet	-11.2777
▁purchased	-11.2778
▁Optimize	-11.2778
bul	-11.2778
▁enduring	-11.2779
ky	-11.278
▁geo	-11.278
lasting	-11.2783
▁Col	-11.2784
▁superhero	-11.2794
▁cheddar	-11.2794
▁league	-11.2794
▁Centre	-11.2794
▁weaving	-11.2794
▁Poetry	-11.2795
▁chatbots	-11.2799
▁Dun	-11.2801
▁workspace	-11.2802
▁cameras	-11.2803
lle	-11.2808
▁Bal	-11.2808
vy	-11.2809
▁tune	-11.2809
▁Director	-11.281
▁pillow	-11.2813
▁90	-11.2814
▁lamp	-11.2814
▁nonprofit	-11.2815
▁sway	-11.2815
▁4,	-11.2816
▁violent	-11.2818
▁cooker	-11.2818
▁Family	-11.2819
▁Corn	-11.282
▁earning	-11.282
▁Organization	-11.2825
▁conferences	-11.2826
▁statements	-11.2829
▁caramel	-11.283
▁integral	-11.283
▁contexts	-11.2833
lessness	-11.2833
▁Cam	-11.2837
▁meta	-11.2837
▁Award	-11.2838
rounded	-11.2838
▁rating	-11.2846
▁emerge	-11.2846
▁coriander	-11.2848
▁turmeric	-11.2848
▁Mia	-11.2849
▁reflective	-11.2855
▁29	-11.2861
▁richness	-11.2861
▁USA	-11.2862
lf	-11.2867
▁breadcrumbs	-11.2876
▁manufacturers	-11.2879
▁weapon	-11.288
-4	-11.2883
▁cafes	-11.2884
▁professor	-11.2885
▁Castle	-11.2886
▁gray	-11.2887
lands	-11.2887
▁<=	-11.2889
not	-11.2891
Green	-11.2893
worth	-11.2894
Time	-11.2894
ept	-11.2894
lly	-11.2903
▁excessive	-11.2905
EN	-11.2905
▁Trust	-11.2906
▁asks	-11.2908
var	-11.2909
▁refused	-11.291
lum	-11.2911
▁corresponding	-11.2914
▁Oil	-11.2917
▁ritual	-11.2917
▁Different	-11.2921
ev	-11.2923
An	-11.2924
▁charming	-11.2925
▁partnering	-11.2925
▁refers	-11.2929
á	-11.2931
▁workflow	-11.2931
▁poetic	-11.2931
▁Trans	-11.2935
▁masks	-11.2936
▁minimizing	-11.294
▁comforting	-11.294
▁lush	-11.2941
▁secured	-11.2942
▁handles	-11.2943
▁bonds	-11.2945
phone	-11.2948
▁Provid	-11.2949
▁GPS	-11.2951
▁Text	-11.2955
▁collecting	-11.2955
▁alerts	-11.2956
▁athletic	-11.2958
▁Rinse	-11.2958
▁chunks	-11.2958
▁Rights	-11.296
▁hydrated	-11.2965
▁32	-11.2965
▁salty	-11.2965
Product	-11.2966
▁3)	-11.2974
▁80	-11.2974
️	-11.2976
▁lavender	-11.2976
fit	-11.2977
▁CEO	-11.2978
í	-11.2979
▁empower	-11.2981
▁nine	-11.2983
▁stretches	-11.2987
▁lesser	-11.299
▁drag	-11.2992
shi	-11.2992
▁discipline	-11.2993
▁troops	-11.2995
▁sesame	-11.2995
▁Hard	-11.3001
▁comp	-11.3002
▁ju	-11.3004
▁trap	-11.3007
hop	-11.3008
▁Cap	-11.3008
▁Taylor	-11.3013
▁suspect	-11.3013
▁podcasts	-11.3014
▁Jones	-11.3016
US	-11.3019
▁fourth	-11.3022
▁(2	-11.3023
▁demon	-11.3023
▁hues	-11.3025
▁6:	-11.3031
ü	-11.3031
▁lasagna	-11.3031
▁Mount	-11.3034
▁gameplay	-11.3035
bol	-11.3041
▁Care	-11.3043
speed	-11.3044
▁king	-11.3047
▁locate	-11.3048
▁Premier	-11.305
▁geothermal	-11.305
▁respiratory	-11.305
▁unpredictable	-11.305
▁ASAP	-11.305
▁steady	-11.305
▁13.	-11.3051
▁lifetime	-11.3051
▁😊	-11.3052
▁organ	-11.3052
▁deployment	-11.3052
▁streams	-11.3057
▁wishes	-11.3059
▁weekly	-11.3062
▁signing	-11.3064
▁aged	-11.3065
market	-11.3067
▁bees	-11.3068
▁terrifying	-11.3068
▁departments	-11.3069
▁tightly	-11.3071
Sustainable	-11.3079
mates	-11.3083
▁colored	-11.3084
angle	-11.3084
▁nation	-11.3085
▁Slice	-11.3086
▁meters	-11.3087
ttle	-11.3087
▁bedroom	-11.3088
▁supposed	-11.309
wing	-11.3091
▁Dead	-11.3091
▁fills	-11.3095
▁hosted	-11.3096
▁Santa	-11.3097
▁genuine	-11.3098
▁semester	-11.3106
▁organisms	-11.3106
tors	-11.3108
▁sweat	-11.311
▁toilet	-11.311
▁Paint	-11.3112
▁falls	-11.3113
▁modules	-11.3122
▁blends	-11.3122
▁travels	-11.3124
▁Mat	-11.3124
▁positivity	-11.3124
▁Question	-11.3124
▁Ireland	-11.3125
▁Help	-11.3126
udi	-11.3127
▁linguistic	-11.3128
▁basics	-11.3132
ena	-11.3132
▁</	-11.3135
▁Begin	-11.3137
▁Future	-11.3138
▁prior	-11.3141
▁fertility	-11.3143
▁grandmother	-11.3143
▁Gothic	-11.3143
▁singer	-11.3143
▁ran	-11.3144
AM	-11.3145
▁globally	-11.3145
▁reform	-11.3146
▁React	-11.315
▁Setting	-11.315
▁Olympics	-11.3152
elect	-11.3153
▁dirt	-11.3154
▁collapse	-11.3162
▁sweetener	-11.3162
▁ears	-11.317
▁threatened	-11.3171
hel	-11.3172
▁Frank	-11.318
▁Caesar	-11.318
▁Anna	-11.3181
▁boiling	-11.3182
▁fry	-11.3182
▁pivotal	-11.3184
▁gut	-11.3186
▁matching	-11.3187
meter	-11.3187
more	-11.3191
▁fierce	-11.3191
minded	-11.3193
▁Cool	-11.3193
▁attraction	-11.3194
▁Joe	-11.3196
▁manageable	-11.3196
filename	-11.3196
▁rival	-11.3198
▁automotive	-11.3199
▁filtering	-11.32
▁mapping	-11.3201
▁marketplace	-11.3201
▁delight	-11.3202
▁jumping	-11.3202
▁documentary	-11.3202
position	-11.3206
▁cocktails	-11.3213
▁2000	-11.3215
▁accompanie	-11.3218
Bo	-11.3218
▁masterpiece	-11.3218
▁cult	-11.3219
game	-11.3219
▁specialist	-11.322
▁£1	-11.3223
▁curl	-11.3224
▁logic	-11.3225
▁publishing	-11.3228
shirt	-11.3231
▁sword	-11.3234
▁startups	-11.3235
▁evolving	-11.3236
▁reputable	-11.3237
▁racing	-11.3237
▁gateway	-11.3237
▁liking	-11.3237
index	-11.3238
▁Ten	-11.3238
▁bananas	-11.3239
▁observation	-11.3239
▁Stra	-11.3244
▁Ruby	-11.3244
44	-11.3246
▁Cream	-11.3247
ters	-11.3251
▁revisions	-11.3251
▁acting	-11.3252
▁heated	-11.3253
▁incidents	-11.3254
▁defined	-11.3254
▁compromise	-11.3256
▁introducing	-11.3256
▁Traditional	-11.3256
▁Little	-11.3256
▁Windows	-11.3256
▁tuna	-11.326
store	-11.3261
watch	-11.3262
▁protective	-11.3266
▁moral	-11.3268
cop	-11.3269
lex	-11.327
▁columns	-11.3273
▁heads	-11.3274
▁slide	-11.3274
▁Northern	-11.3275
▁parallel	-11.3277
▁Story	-11.3278
▁prospect	-11.3279
▁pets	-11.3279
▁Job	-11.3282
And	-11.3285
itude	-11.3285
▁softened	-11.3287
Company	-11.3289
▁peeled	-11.329
cast	-11.3293
▁stimulate	-11.3293
▁loving	-11.3294
pers	-11.3295
▁Deep	-11.3296
▁Young	-11.3298
▁occasions	-11.3301
▁parallels	-11.3309
▁webinars	-11.3312
▁isolated	-11.3317
▁Mill	-11.3323
▁requesting	-11.3326
▁lip	-11.333
));	-11.333
▁infectious	-11.3331
▁temporary	-11.3331
▁Colorado	-11.3332
▁norms	-11.3332
▁thicken	-11.3333
▁usual	-11.3335
▁funny	-11.3336
▁Kan	-11.3338
▁Second	-11.3343
▁proof	-11.3343
school	-11.3345
▁Ag	-11.3347
teen	-11.3348
ea	-11.3348
▁musician	-11.335
▁burden	-11.335
▁tangible	-11.3351
▁aging	-11.3353
▁Sky	-11.3353
▁legend	-11.3355
▁architects	-11.3355
open	-11.3357
BA	-11.336
▁10-	-11.3362
tte	-11.3362
ali	-11.3363
▁earned	-11.3363
38	-11.3366
▁spill	-11.337
▁Board	-11.3372
AD	-11.3373
▁frameworks	-11.3373
▁turbines	-11.3375
▁shell	-11.3378
mmer	-11.338
▁encounters	-11.3381
▁Fu	-11.3384
cultural	-11.3385
▁spine	-11.3385
▁recruit	-11.3387
▁Brussels	-11.3389
▁likelihood	-11.3389
▁pudding	-11.3389
▁cosmic	-11.3389
▁maze	-11.3389
▁wrapped	-11.339
▁calligraphy	-11.339
▁sticking	-11.3392
▁outdoors	-11.3392
▁mushroom	-11.3394
▁agent	-11.3394
▁lined	-11.3396
▁Track	-11.3397
▁Shi	-11.3399
Ba	-11.3401
▁Hot	-11.3407
▁generous	-11.3408
▁guacamole	-11.3408
▁intimate	-11.3408
▁knot	-11.3408
▁pushed	-11.3409
packed	-11.3411
▁hashtag	-11.3413
▁hover	-11.3414
NG	-11.342
Art	-11.3425
▁Greenfield	-11.3425
▁Cooking	-11.3426
▁ambiance	-11.3427
▁extent	-11.3427
▁Always	-11.3428
▁mist	-11.3428
My	-11.3429
agon	-11.344
map	-11.3442
▁flesh	-11.3446
▁precious	-11.3446
▁sturdy	-11.3446
Math	-11.3446
▁regulatory	-11.3446
▁Priya	-11.3447
▁Ali	-11.3454
▁practiced	-11.3456
▁scored	-11.3456
ua	-11.3457
▁chi	-11.3459
avi	-11.3461
▁Heritage	-11.3464
▁varied	-11.3466
▁promptly	-11.3472
▁scenario	-11.3472
▁bow	-11.3473
start	-11.3475
▁personally	-11.348
▁—	-11.3482
▁Mobile	-11.3482
▁cushion	-11.3485
▁enlightening	-11.3485
▁31	-11.3485
▁viewing	-11.3485
▁golf	-11.3488
▁temples	-11.3489
▁Ball	-11.349
▁Bird	-11.3492
▁Travel	-11.3493
▁Cost	-11.3494
▁flowing	-11.3497
▁transit	-11.3503
lst	-11.3503
▁atmospheric	-11.3504
▁density	-11.3504
▁twice	-11.3504
▁demands	-11.3513
tric	-11.3515
▁curve	-11.3516
▁goat	-11.3517
nger	-11.3518
▁Bowl	-11.3519
▁occurs	-11.352
▁wouldn	-11.3522
▁List	-11.3522
▁constraints	-11.3524
▁Agency	-11.3524
New	-11.3525
▁nations	-11.3529
▁drained	-11.3529
▁🎉	-11.3533
▁Financial	-11.3537
▁Deco	-11.3538
▁embark	-11.3539
▁execute	-11.3542
▁unsweetened	-11.3543
▁Transfer	-11.3543
▁bathroom	-11.3543
nel	-11.3544
Index	-11.3546
▁infections	-11.3554
ius	-11.3557
▁Flo	-11.356
▁portray	-11.3561
▁headline	-11.3561
cin	-11.3562
▁Swiss	-11.3562
▁palace	-11.3562
▁Visual	-11.3563
▁enriching	-11.3563
script	-11.3565
hr	-11.3569
▁Ken	-11.3571
▁tele	-11.3572
▁killing	-11.3574
▁Force	-11.3576
▁robotics	-11.3577
▁measurement	-11.3577
▁orchestra	-11.3582
▁biological	-11.3582
▁forums	-11.3583
round	-11.3585
▁nuanced	-11.3586
ST	-11.3586
▁elementary	-11.3588
▁appointment	-11.3591
eng	-11.3591
ID	-11.3593
▁roasting	-11.3595
▁securely	-11.3595
▁naturally	-11.3595
▁cabin	-11.3596
▁tweet	-11.3601
▁welfare	-11.3601
▁Ci	-11.3603
▁Farm	-11.3603
MO	-11.3605
bell	-11.3605
▁IoT	-11.3606
nge	-11.3609
▁divided	-11.3611
▁Sco	-11.3617
▁fork	-11.3617
type	-11.3617
gent	-11.3617
▁viewed	-11.3618
▁qualifications	-11.3618
tw	-11.3621
▁Meanwhile	-11.3621
▁gallery	-11.3621
▁observing	-11.3621
▁default	-11.3621
▁grants	-11.3625
▁Mayan	-11.3625
▁scores	-11.3629
▁upbeat	-11.3629
▁crushed	-11.3632
▁Ste	-11.3635
▁founded	-11.3636
turn	-11.3639
iver	-11.3639
aba	-11.3639
println	-11.364
▁instability	-11.3641
▁chamber	-11.3641
▁rows	-11.3641
▁peel	-11.3647
▁tribe	-11.3652
documented	-11.3653
▁workload	-11.3657
▁none	-11.3658
35	-11.3659
▁rhythms	-11.3659
▁timer	-11.366
▁reign	-11.366
->	-11.3666
▁demographic	-11.3671
▁Olympic	-11.3671
▁returning	-11.3671
▁cluster	-11.3674
attaching	-11.3674
EA	-11.3675
▁aggressive	-11.368
▁endurance	-11.368
▁welcoming	-11.368
▁ceiling	-11.368
▁astronauts	-11.3681
bot	-11.3681
▁Machine	-11.3681
▁quiz	-11.3682
▁iterate	-11.3683
▁passwords	-11.3692
▁header	-11.3696
▁decreased	-11.3699
flow	-11.3699
▁Calculate	-11.3699
▁adventurous	-11.37
▁severity	-11.37
▁recharge	-11.37
▁enforcement	-11.37
▁metallic	-11.3701
TR	-11.3702
▁insert	-11.3703
▁Class	-11.3704
▁Fat	-11.3704
▁terror	-11.3706
24	-11.3712
▁startup	-11.3712
▁Utilize	-11.3713
UT	-11.3714
▁attracting	-11.3716
▁prove	-11.3718
▁Avocado	-11.3719
▁boards	-11.372
▁tray	-11.3722
22	-11.3725
▁assets	-11.373
ku	-11.3732
70	-11.3734
▁operational	-11.3734
▁Page	-11.3737
▁feeding	-11.3737
▁Sign	-11.3738
▁Ms	-11.374
▁cellular	-11.374
▁inquire	-11.374
uring	-11.3742
▁backpack	-11.3745
▁drill	-11.3746
▁Listen	-11.3747
▁buses	-11.3748
cul	-11.3748
▁Mountains	-11.3751
▁1000	-11.3752
▁trains	-11.3756
▁uncertain	-11.3758
▁rinse	-11.3759
▁bustling	-11.3759
▁blind	-11.3759
▁drew	-11.3759
through	-11.3759
▁cucumbers	-11.376
▁ID	-11.3762
▁screening	-11.3764
▁negatively	-11.377
▁surge	-11.377
▁Ser	-11.3772
everal	-11.3773
▁asset	-11.3778
▁hygiene	-11.3779
▁volcanic	-11.3779
▁therapies	-11.3779
▁aviation	-11.3779
▁Square	-11.3782
▁token	-11.3784
▁Case	-11.3786
▁tries	-11.3788
Or	-11.3788
▁Ice	-11.3788
▁losses	-11.3789
▁Iran	-11.379
▁posting	-11.3794
HI	-11.3796
▁Bor	-11.3799
ception	-11.3799
gro	-11.38
▁Sports	-11.3802
tting	-11.3805
▁Personalized	-11.3809
▁pancakes	-11.3814
▁realm	-11.3816
▁stain	-11.3818
▁performers	-11.3818
▁certificate	-11.3819
▁gamification	-11.3819
▁constructive	-11.382
▁Highlight	-11.3821
▁heaven	-11.3822
▁Bas	-11.3823
▁Ash	-11.3828
▁laugh	-11.3829
▁Para	-11.3836
▁cheer	-11.3837
born	-11.3838
▁Liverpool	-11.3839
▁backstory	-11.3839
▁fertilizer	-11.3839
▁governance	-11.3839
put	-11.3842
▁rotation	-11.3842
law	-11.3845
▁accommodation	-11.3853
owned	-11.3856
▁discomfort	-11.3859
▁decorate	-11.3861
awareness	-11.3865
rri	-11.3865
▁slot	-11.3867
▁behavioral	-11.3872
▁maintained	-11.3876
▁winner	-11.3876
▁True	-11.3878
▁holistic	-11.3879
▁advancement	-11.388
▁snap	-11.388
▁elderly	-11.3883
▁bitter	-11.3886
author	-11.389
▁boss	-11.3891
▁shut	-11.3892
▁Moon	-11.3895
mod	-11.3896
▁advisor	-11.3899
▁festive	-11.3899
▁auction	-11.3899
▁petals	-11.3899
▁invention	-11.3899
▁Gen	-11.39
▁cardio	-11.3902
▁spirituality	-11.3905
▁mentors	-11.3912
▁Sol	-11.3914
▁disc	-11.3916
Ho	-11.3916
▁frying	-11.3916
…	-11.3919
▁Chelsea	-11.3919
▁economies	-11.3919
▁Turkish	-11.3919
▁Harry	-11.3922
])	-11.3924
▁responding	-11.3928
▁solving	-11.3928
itch	-11.3928
▁bones	-11.3932
▁knee	-11.3935
▁accomplished	-11.3936
▁Spe	-11.3936
▁teaches	-11.3936
▁Pen	-11.3936
▁nicely	-11.3938
▁teachings	-11.3939
▁anxious	-11.3939
▁UN	-11.394
▁capability	-11.394
64	-11.3941
▁constructed	-11.3941
▁accomplish	-11.3942
▁progression	-11.3944
▁Drain	-11.3946
▁Engineering	-11.3952
37	-11.3953
▁largely	-11.3956
▁Chris	-11.3956
▁troubleshooting	-11.3957
▁afterlife	-11.3957
▁silent	-11.396
▁arrival	-11.396
▁Depend	-11.396
▁Scott	-11.3961
▁producers	-11.3962
bury	-11.3965
▁illnesses	-11.3968
▁Auto	-11.3971
▁replaced	-11.3977
▁mono	-11.3978
▁dioxide	-11.398
▁butterfly	-11.398
▁Seattle	-11.398
mont	-11.3985
18	-11.3986
▁controls	-11.3986
▁tense	-11.3991
▁refrigerate	-11.4
▁Commission	-11.4
▁staple	-11.4001
▁valley	-11.4001
▁rustic	-11.4003
▁rod	-11.4004
Environmental	-11.4005
compassion	-11.4005
▁timeless	-11.4005
▁Jan	-11.4006
▁awarded	-11.4008
url	-11.4009
▁reps	-11.4017
▁brave	-11.4019
▁nurse	-11.4019
ique	-11.402
▁apologize	-11.4021
▁Quinoa	-11.4021
▁exotic	-11.4021
▁vertical	-11.4021
▁notification	-11.4022
▁wax	-11.4023
▁Boy	-11.4024
▁gang	-11.4025
▁barrier	-11.4038
▁vacuum	-11.4041
▁Celebrate	-11.4041
▁retirement	-11.4041
makers	-11.4044
▁1960	-11.4044
Dr	-11.4045
▁transported	-11.4051
osis	-11.4053
IP	-11.4061
▁Kar	-11.4061
▁distress	-11.4062
▁50%	-11.4063
▁Ban	-11.4067
EM	-11.4068
CH	-11.4069
phe	-11.4075
fix	-11.4079
some	-11.4079
Path	-11.408
▁exterior	-11.4082
▁Fruit	-11.4082
▁bulk	-11.4083
▁centered	-11.4083
aged	-11.4086
▁Alexander	-11.4086
▁wound	-11.4087
▁Eye	-11.4088
TH	-11.4095
▁arc	-11.4098
▁"$	-11.4098
▁compress	-11.41
▁variation	-11.4101
ND	-11.4101
▁rainforest	-11.4102
▁sacred	-11.4102
▁tragic	-11.4102
▁tunnel	-11.4102
▁harness	-11.4103
▁surprised	-11.4103
▁portable	-11.4105
▁specifications	-11.4106
eller	-11.4107
▁Reach	-11.4108
▁Experience	-11.4109
▁Save	-11.4116
DC	-11.4118
▁calculated	-11.412
▁certification	-11.4122
▁originally	-11.4123
▁automate	-11.4125
▁glasses	-11.4126
▁excel	-11.4126
▁bid	-11.4129
▁keyboard	-11.4131
curr	-11.4131
▁Control	-11.4135
ING	-11.4136
CD	-11.4143
EL	-11.4144
▁alleviate	-11.4144
▁simplify	-11.4144
ME	-11.4144
▁stains	-11.4151
Up	-11.4153
▁Americans	-11.4159
CO	-11.416
▁hesitant	-11.4164
▁ROI	-11.4164
▁grind	-11.4165
▁pit	-11.4167
▁veterans	-11.4169
ati	-11.4171
▁wage	-11.4172
▁bark	-11.4176
▁matters	-11.4177
▁publications	-11.4177
ulate	-11.4179
▁pat	-11.4181
ett	-11.4181
▁protocol	-11.4185
▁Brush	-11.4186
▁sincere	-11.4193
▁pound	-11.4196
▁Bean	-11.4197
▁Coast	-11.4203
rchaeological	-11.4206
▁communicating	-11.4206
▁rectangle	-11.4206
▁digestive	-11.4206
▁naval	-11.4206
▁lawyer	-11.4206
TE	-11.4207
▁Replace	-11.4208
▁pipe	-11.4212
▁instances	-11.4215
▁Wine	-11.4215
▁venues	-11.422
izz	-11.4221
77	-11.4221
▁neighborhoods	-11.4221
nda	-11.4225
crypt	-11.4226
▁advocating	-11.4227
▁cafe	-11.4227
▁Gri	-11.4229
▁genetics	-11.4229
▁remotely	-11.423
▁tale	-11.423
▁typical	-11.424
▁deserve	-11.4245
Di	-11.4247
▁Study	-11.4247
▁rhyme	-11.4247
▁spaghetti	-11.4247
▁wilderness	-11.4247
▁Optional	-11.4248
▁shall	-11.4248
▁chef	-11.425
▁attendance	-11.4251
▁Sound	-11.4252
▁20%	-11.4252
▁whisper	-11.4253
ened	-11.4255
▁therapeutic	-11.4256
▁forming	-11.4261
▁5-	-11.4266
▁Buddhist	-11.4268
▁closing	-11.4268
▁molecular	-11.4268
▁Henry	-11.4268
▁sunflower	-11.4269
▁Drive	-11.427
▁3-4	-11.4273
▁promised	-11.4275
Development	-11.4278
▁skip	-11.428
Data	-11.4281
▁journaling	-11.4282
▁Sales	-11.4284
▁brochure	-11.4289
▁Protein	-11.4289
▁Andrew	-11.4289
▁wool	-11.4289
▁id	-11.4289
▁burnout	-11.4291
▁towns	-11.4298
midst	-11.4299
Int	-11.4302
▁ques	-11.4305
▁poll	-11.4305
▁Studio	-11.431
▁absence	-11.431
▁restrict	-11.431
▁shield	-11.431
▁epic	-11.4312
▁authenticity	-11.4314
▁assignment	-11.4315
▁beautifully	-11.4318
▁concerts	-11.4318
▁Understanding	-11.432
FA	-11.4322
City	-11.4326
▁📚	-11.4329
▁hobby	-11.4331
▁activate	-11.4331
▁Common	-11.4332
ao	-11.4333
▁buyers	-11.4334
MS	-11.4335
65	-11.4336
▁thinly	-11.4336
bla	-11.4348
▁verify	-11.4353
▁dye	-11.4353
▁mail	-11.4356
▁dances	-11.4361
▁Four	-11.4361
ira	-11.4364
shadow	-11.4364
▁consultation	-11.4365
▁Employee	-11.4368
▁sensor	-11.4369
▁Restaurant	-11.4372
▁annually	-11.4372
▁comic	-11.4372
▁thereby	-11.4373
▁Establish	-11.4373
▁fatigue	-11.4373
▁Kingdom	-11.4374
▁admission	-11.4374
▁Viking	-11.4374
▁Creative	-11.4375
▁membership	-11.4375
▁deploy	-11.4377
▁educator	-11.4377
▁composed	-11.4378
▁religions	-11.4382
ington	-11.4384
▁attachment	-11.4385
hn	-11.4386
▁Kim	-11.4388
▁swa	-11.4391
On	-11.4391
▁acoustic	-11.4394
▁configure	-11.4394
▁Dream	-11.4395
▁Christianity	-11.4398
▁landmark	-11.44
bling	-11.4401
enne	-11.4404
Life	-11.4406
▁clinic	-11.4406
▁magnet	-11.4406
▁compact	-11.4412
67	-11.4412
▁5-10	-11.4417
▁chase	-11.442
▁sheets	-11.442
▁alarm	-11.4422
▁perimeter	-11.4423
▁seats	-11.4428
▁Mahal	-11.443
▁XYZ	-11.4437
▁exoplanet	-11.4437
▁portrait	-11.4437
▁surreal	-11.4437
▁tragedy	-11.4437
▁Fra	-11.4437
▁bigger	-11.444
▁swing	-11.444
▁crowded	-11.4441
▁blade	-11.4442
49	-11.4442
▁Collaboration	-11.4442
▁1;	-11.445
▁Multi	-11.4452
▁screens	-11.4458
▁jalapeño	-11.4458
▁palm	-11.4459
▁settlement	-11.4463
fried	-11.4468
▁jars	-11.447
with	-11.4471
▁deaths	-11.4471
▁spell	-11.4474
▁bound	-11.4476
▁rolled	-11.4478
▁CSV	-11.448
▁renewed	-11.448
▁assigned	-11.4481
90	-11.4483
▁conquer	-11.4484
▁standout	-11.4487
▁lion	-11.4487
▁suddenly	-11.4489
▁Being	-11.4493
▁controlling	-11.4495
▁chains	-11.45
▁logical	-11.45
▁respected	-11.45
▁swim	-11.45
▁")	-11.45
▁compatibility	-11.4501
▁financing	-11.4501
▁colour	-11.4501
▁shark	-11.4501
▁ne	-11.4501
▁hills	-11.4503
▁Tofu	-11.4506
▁CD	-11.4507
aka	-11.4508
▁fries	-11.4509
▁responded	-11.4515
▁hack	-11.4517
▁Close	-11.4517
ncy	-11.4521
▁balloon	-11.4523
▁Mid	-11.4524
▁Non	-11.4526
▁knees	-11.4527
▁Lisa	-11.4528
▁Fort	-11.4534
▁zones	-11.4535
▁span	-11.4536
▁Pie	-11.4537
▁Nu	-11.4538
▁breeding	-11.4538
▁evident	-11.4544
numeric	-11.4544
▁methodologies	-11.4544
tree	-11.4546
▁Shop	-11.4547
▁countryside	-11.4551
▁tacos	-11.4551
▁doctors	-11.4557
kar	-11.4561
leg	-11.4561
▁Grill	-11.4562
▁Student	-11.4562
phy	-11.4564
▁essays	-11.4565
▁pounds	-11.4565
▁pyramid	-11.4565
▁recognizing	-11.4565
mail	-11.4567
uous	-11.4568
▁vividly	-11.4575
DE	-11.4577
▁ghosts	-11.458
loo	-11.4584
Pre	-11.4586
▁smoothies	-11.4586
▁approval	-11.4587
▁correlation	-11.4587
▁percussion	-11.4587
▁Safety	-11.4588
▁Tan	-11.4592
▁soups	-11.4593
▁rail	-11.4593
47	-11.4595
▁dressed	-11.4596
bird	-11.4603
TS	-11.4606
▁melodies	-11.4608
▁chorus	-11.4608
▁yarn	-11.4608
▁Sauce	-11.4608
▁Arm	-11.4609
▁speeds	-11.4609
▁towering	-11.4612
▁hospitality	-11.4613
▁vibe	-11.4613
▁needle	-11.4614
▁complementary	-11.4614
▁wonders	-11.4624
99	-11.4627
vil	-11.4627
▁Layer	-11.4627
▁hundreds	-11.4629
▁celebrating	-11.463
▁unauthorized	-11.463
▁digestion	-11.463
shire	-11.4631
▁5-7	-11.4631
▁Thailand	-11.4631
▁duck	-11.4633
▁jack	-11.4635
VI	-11.4637
▁Taj	-11.4637
▁suited	-11.4644
appropriate	-11.4644
▁tones	-11.4646
This	-11.4646
▁ancestors	-11.4648
▁safer	-11.4648
▁possession	-11.4648
▁flooding	-11.4653
rent	-11.4654
▁hospitals	-11.4668
▁aluminum	-11.4673
▁biodiversity	-11.4673
▁utensils	-11.4673
▁precautions	-11.4674
▁crown	-11.4674
▁stuffed	-11.4677
▁Israel	-11.468
▁dim	-11.4681
▁70	-11.4684
▁posters	-11.4685
▁ignore	-11.4688
▁forum	-11.469
fire	-11.4691
▁Taste	-11.4691
▁dear	-11.4693
▁credible	-11.4695
▁manipulation	-11.4695
▁married	-11.4695
▁Should	-11.4695
▁Slide	-11.4695
▁Carolina	-11.4695
▁biking	-11.4696
▁trusted	-11.4697
▁publish	-11.4699
▁Val	-11.47
ddle	-11.4701
▁functioning	-11.4702
▁gaps	-11.4703
ille	-11.4704
ggle	-11.4704
▁momentum	-11.4705
List	-11.4714
▁mill	-11.4716
▁celestial	-11.4717
▁vulnerabilities	-11.4717
▁Bro	-11.4717
▁adhere	-11.4717
▁crafted	-11.4718
▁thus	-11.4718
▁schemes	-11.4718
▁shelf	-11.4724
▁rib	-11.4725
Date	-11.4726
▁Wear	-11.4726
▁dancers	-11.4729
▁majority	-11.4732
▁Were	-11.4732
conscious	-11.4732
width	-11.4732
▁Congress	-11.4737
▁endangered	-11.4739
▁simplicity	-11.4739
▁Whisk	-11.4739
▁allocation	-11.4739
▁Website	-11.4739
▁traveled	-11.474
▁SQL	-11.474
▁passions	-11.4741
▁stopped	-11.4741
▁hire	-11.4742
▁arranged	-11.4743
any	-11.4744
▁downtown	-11.4745
▁Dance	-11.4749
▁belong	-11.475
lower	-11.4752
ike	-11.4756
▁democracy	-11.4761
▁Living	-11.4762
elle	-11.4763
▁Healthcare	-11.4765
▁touches	-11.4765
▁Ram	-11.4767
▁Zo	-11.4769
▁Advanced	-11.4772
▁Government	-11.4772
▁Made	-11.4772
each	-11.4773
▁additions	-11.4773
▁");	-11.478
Instruction	-11.478
▁Sen	-11.4782
▁nutmeg	-11.4783
▁Chief	-11.4783
▁mural	-11.4784
▁accidentally	-11.4784
▁riding	-11.4784
iva	-11.4784
▁installations	-11.4786
▁Improve	-11.4791
awn	-11.4791
▁buzz	-11.4793
▁shortage	-11.4797
▁photograph	-11.4798
▁Lab	-11.4801
▁smallest	-11.4803
▁telling	-11.4805
▁northern	-11.4805
▁booth	-11.4806
▁Panel	-11.4811
space	-11.4814
▁rivers	-11.4816
▁linear	-11.4817
▁Syria	-11.4821
42	-11.4823
▁rank	-11.4824
▁kill	-11.4827
▁soothe	-11.4827
▁granula	-11.4827
▁36	-11.4829
▁sustain	-11.4831
▁advances	-11.4832
▁mostly	-11.4834
▁Analysis	-11.4839
▁scholar	-11.4839
▁horses	-11.4843
▁grilling	-11.4847
EP	-11.4848
▁thermal	-11.485
▁resistant	-11.4853
▁shelves	-11.4855
▁scientist	-11.4862
berry	-11.4864
Th	-11.4866
▁flows	-11.4866
wer	-11.487
▁jungle	-11.4871
▁interrupt	-11.4871
▁inquiry	-11.4871
▁Model	-11.4872
rest	-11.4873
non	-11.4874
▁substring	-11.4874
▁Professional	-11.4876
All	-11.4876
^2	-11.4877
▁accounting	-11.4878
▁Come	-11.4879
▁exists	-11.4885
▁Poems	-11.4886
▁deadly	-11.4893
▁permanent	-11.4894
▁cliff	-11.4894
▁decorated	-11.4895
▁traps	-11.4896
▁Point	-11.4898
▁Interactive	-11.4899
▁Bali	-11.4899
▁cure	-11.4901
Hello	-11.4902
▁clicking	-11.4904
32	-11.4907
▁loans	-11.4908
▁Pakistan	-11.491
▁Jim	-11.4911
Image	-11.4912
util	-11.4912
▁incentivize	-11.4913
▁hurricane	-11.4916
▁neglect	-11.4916
▁phenomena	-11.4916
▁Adobe	-11.4916
▁carpet	-11.4917
}"	-11.4917
▁referred	-11.4918
csv	-11.4919
▁";	-11.4919
▁portrayal	-11.4922
▁laid	-11.4923
itz	-11.4923
▁pressing	-11.4924
DI	-11.4924
▁regulat	-11.4926
▁Express	-11.4929
▁citrus	-11.493
▁ruler	-11.4932
▁requested	-11.4933
ific	-11.4937
▁citing	-11.4938
▁Field	-11.4938
▁laser	-11.4942
68	-11.4942
rb	-11.4944
▁Has	-11.4945
▁Miss	-11.4945
ked	-11.4946
entrepreneurship	-11.4948
▁relation	-11.4953
▁analyzed	-11.4953
▁Cold	-11.4953
-12	-11.4953
▁instant	-11.4954
▁Yu	-11.4954
▁chose	-11.4957
▁celebrates	-11.4958
▁Schedule	-11.496
▁ribbon	-11.4961
▁entering	-11.4962
ida	-11.4964
▁Sciences	-11.4964
GI	-11.4964
▁rope	-11.4965
▁Bat	-11.4965
lee	-11.4968
wide	-11.4969
uda	-11.4971
sses	-11.4971
▁counting	-11.4971
gger	-11.4976
rows	-11.498
▁cautious	-11.4983
▁soccer	-11.4983
▁!=	-11.4985
chin	-11.4985
▁codes	-11.4986
last	-11.4988
▁Bru	-11.4989
▁login	-11.4993
▁demonstrates	-11.4998
▁enters	-11.5
▁Summer	-11.5007
ami	-11.5007
▁tube	-11.5007
▁crab	-11.5007
▁patch	-11.5007
mel	-11.5009
▁complicated	-11.5009
▁fruity	-11.5011
▁thickness	-11.5011
▁blended	-11.5014
media	-11.5017
▁scents	-11.502
▁guilt	-11.502
▁7:	-11.5021
▁sex	-11.5022
▁shoe	-11.5025
▁rainbow	-11.5028
▁sensitivity	-11.5028
▁tirelessly	-11.5028
▁Girl	-11.5028
saving	-11.5029
▁fatty	-11.503
▁lovers	-11.5033
ebra	-11.5034
tten	-11.5039
▁ka	-11.5043
▁drafting	-11.5043
kh	-11.5043
▁contrasting	-11.5045
▁association	-11.5045
▁cornstarch	-11.505
▁entrance	-11.505
▁fantasy	-11.505
▁shells	-11.5052
▁ordered	-11.5053
▁Egyptians	-11.5057
▁toasted	-11.5061
lves	-11.5061
raw	-11.5062
▁accidents	-11.5063
ero	-11.5064
▁determin	-11.5065
▁opera	-11.5066
▁harvest	-11.5068
▁bamboo	-11.5073
▁dividing	-11.5073
▁membrane	-11.5073
▁Date	-11.5073
▁challenged	-11.5074
▁tranquility	-11.5074
▁400	-11.5076
nia	-11.5077
▁touching	-11.5077
50,000	-11.5078
▁mess	-11.5083
▁paired	-11.5087
PI	-11.5088
▁complaints	-11.5088
89	-11.5088
roll	-11.5091
▁defensive	-11.5096
▁regret	-11.5096
▁worries	-11.5096
▁Record	-11.5096
▁entity	-11.5096
▁drives	-11.5096
▁shallow	-11.5096
▁aftermath	-11.5097
ae	-11.5098
▁olives	-11.5101
▁Table	-11.5102
▁differently	-11.5106
▁entertaining	-11.511
ural	-11.5113
▁towels	-11.5114
▁plugin	-11.5116
▁scales	-11.5116
▁planner	-11.5117
▁demonstrations	-11.5117
▁devotion	-11.5118
▁explosion	-11.5118
▁identification	-11.5118
▁democratic	-11.5119
▁broadcast	-11.5119
▁Mus	-11.5121
numbers	-11.5121
books	-11.5122
▁Medicine	-11.5122
100	-11.5129
itt	-11.5131
ogen	-11.5133
▁Sleep	-11.5139
▁Southeast	-11.514
▁champion	-11.5141
▁Trade	-11.5141
▁Airbnb	-11.5141
▁assembly	-11.5141
▁accompany	-11.5141
▁collage	-11.5141
▁Temple	-11.5141
▁kidney	-11.5141
▁2007	-11.5143
▁oldest	-11.5152
find	-11.5158
▁goddess	-11.516
▁dialect	-11.5164
▁Buddhism	-11.5164
match	-11.5164
▁fulfillment	-11.5165
▁Dur	-11.5166
▁praise	-11.5167
▁30%	-11.5168
▁mock	-11.5169
▁critically	-11.5174
▁toxic	-11.5174
39	-11.5174
▁acknowledg	-11.5175
NY	-11.5177
▁trendy	-11.5185
friend	-11.5185
sky	-11.5187
▁embracing	-11.5187
▁alumni	-11.5187
▁cry	-11.5187
▁punch	-11.5188
▁stalk	-11.5192
▁len	-11.5195
=>	-11.5195
▁Nick	-11.5195
▁explained	-11.5197
▁sustained	-11.5204
aught	-11.5206
▁vendor	-11.5207
▁athlete	-11.5207
▁Austin	-11.521
▁Organize	-11.521
▁illusion	-11.521
▁Orange	-11.5212
▁spacecraft	-11.5213
▁failures	-11.5217
▁markers	-11.522
mus	-11.5221
▁pulled	-11.5224
▁MP	-11.5226
▁batch	-11.523
▁instructor	-11.5231
▁Caribbean	-11.5233
▁elegance	-11.5233
▁intelligent	-11.5233
▁rubber	-11.5233
fect	-11.5234
cation	-11.5237
▁fieldwork	-11.5241
600	-11.5242
lap	-11.525
nor	-11.5251
▁prestigious	-11.5256
▁proportion	-11.5256
▁uniform	-11.5256
▁slicing	-11.5256
▁Number	-11.5256
▁Reserve	-11.5257
▁marking	-11.5258
▁Den	-11.5261
▁whom	-11.5261
▁cent	-11.5262
▁relieve	-11.5263
▁Sit	-11.5264
▁tied	-11.5265
▁outstanding	-11.5265
▁stressed	-11.5267
eep	-11.5269
safe	-11.527
stream	-11.5276
▁hydrogen	-11.5279
▁humorous	-11.5281
▁brick	-11.5281
▁depict	-11.5282
▁Lin	-11.5283
▁orbit	-11.5283
▁smartphones	-11.5287
SI	-11.5293
▁insecurity	-11.5293
SO	-11.5294
dimensional	-11.5294
eh	-11.5295
append	-11.5296
bon	-11.5299
wel	-11.5299
▁Son	-11.5299
▁biodegradable	-11.5302
▁cabbage	-11.5302
▁despair	-11.5302
▁southern	-11.5302
▁warfare	-11.5303
▁scavenger	-11.5303
▁unfold	-11.5304
hour	-11.5305
▁roller	-11.5305
▁strongly	-11.5307
▁installing	-11.5313
▁moderate	-11.5316
▁respectively	-11.5322
▁AWS	-11.5325
▁Subject	-11.5326
▁Order	-11.5328
▁similarities	-11.5331
unch	-11.5332
▁Rust	-11.5336
nc	-11.5339
▁Soup	-11.534
▁brighter	-11.5341
sey	-11.5342
▁demanding	-11.5343
cycle	-11.5345
you	-11.5348
▁tortillas	-11.5348
▁beverage	-11.5348
▁Mongol	-11.5349
▁Transportation	-11.5349
▁1980	-11.5351
▁Industrial	-11.5352
▁Nike	-11.5355
▁wearable	-11.5357
IA	-11.5359
▁draws	-11.5361
enc	-11.5366
▁Fold	-11.5366
▁whispers	-11.5366
▁Interesting	-11.5372
▁pulse	-11.5372
▁Practic	-11.5372
▁anchor	-11.5373
▁iOS	-11.5373
▁banner	-11.5373
▁Large	-11.5374
▁Treat	-11.5382
▁compounds	-11.5384
▁melting	-11.5384
▁Was	-11.539
▁Wash	-11.5391
▁loneliness	-11.5395
▁Wilson	-11.5396
▁CNN	-11.5397
▁handmade	-11.5398
than	-11.5402
▁edition	-11.5406
▁Toast	-11.5406
cake	-11.5407
▁Pur	-11.5408
▁Republic	-11.5411
▁duty	-11.5415
▁flame	-11.5415
▁boxes	-11.5416
▁hydro	-11.5417
▁Swift	-11.5419
▁clutter	-11.5419
▁devastating	-11.5419
▁Secretary	-11.5419
▁Internet	-11.542
▁earthquake	-11.542
85	-11.5421
▁wing	-11.5421
▁tide	-11.5423
▁Process	-11.5424
▁vessels	-11.5431
prone	-11.5433
▁attempted	-11.5433
▁straightforward	-11.5442
▁tattoo	-11.5442
▁agenda	-11.5443
▁Steve	-11.5443
▁Justice	-11.5445
▁Systems	-11.5446
▁realism	-11.5447
ei	-11.5448
http	-11.5448
▁listener	-11.5452
▁bench	-11.5459
▁warming	-11.5461
▁Word	-11.5464
▁Chapter	-11.5466
▁casserole	-11.5466
▁Diego	-11.5466
▁Senate	-11.5467
▁grows	-11.5467
▁ruins	-11.5468
▁varies	-11.5468
foot	-11.5469
result	-11.547
▁pastries	-11.547
▁300	-11.5471
mouth	-11.5472
week	-11.5473
(1	-11.5475
▁lightning	-11.5479
▁profit	-11.548
▁reads	-11.5482
▁speaks	-11.5483
ori	-11.5483
▁Base	-11.5486
43	-11.5489
ö	-11.5489
▁excellence	-11.5489
▁parmesan	-11.5489
▁structural	-11.5489
▁Standard	-11.549
▁browse	-11.5492
▁wipe	-11.5493
split	-11.5496
▁Sort	-11.5498
poli	-11.55
▁te	-11.5501
▁experimentation	-11.5504
▁occurrences	-11.5506
ail	-11.5508
▁Silver	-11.5513
▁browsing	-11.5513
▁embroidery	-11.5513
▁drums	-11.5513
▁proved	-11.5514
▁fail	-11.5514
▁sadness	-11.5514
▁overlooked	-11.5516
reflection	-11.5517
shift	-11.5518
▁candle	-11.5518
▁approved	-11.5522
▁converted	-11.5522
▁scar	-11.5523
▁cookbook	-11.5528
ifying	-11.553
▁displaying	-11.5533
▁funded	-11.5533
▁hum	-11.5533
▁surround	-11.5534
▁abroad	-11.5537
▁Camp	-11.5537
▁Reflect	-11.554
▁Total	-11.5543
▁nest	-11.5545
kit	-11.5545
▁plum	-11.5545
▁glowing	-11.5547
▁teenagers	-11.5547
▁squares	-11.5548
▁passes	-11.5551
▁taxes	-11.5552
▁fairy	-11.5553
▁Bel	-11.5558
▁brutal	-11.556
▁therefore	-11.556
▁unsure	-11.5561
▁protests	-11.5564
▁procedure	-11.5564
▁\	-11.5567
▁households	-11.5571
lib	-11.5573
▁resolved	-11.5583
▁perfection	-11.5584
▁scandal	-11.5585
▁Arch	-11.5585
▁Jason	-11.5586
▁seminar	-11.5589
▁parameter	-11.5589
▁beats	-11.559
▁sticky	-11.5591
▁obtained	-11.5593
▁civilian	-11.5594
Str	-11.5597
AF	-11.5597
▁ethical	-11.56
▁storyline	-11.5601
label	-11.5601
cat	-11.5602
▁EU	-11.5603
▁Hol	-11.5606
▁pile	-11.5608
▁Culture	-11.5608
▁jalapeno	-11.5608
▁earrings	-11.5608
▁popcorn	-11.5608
▁grave	-11.5609
▁sync	-11.561
gonna	-11.561
▁suspects	-11.5611
▁newspaper	-11.5614
▁kinds	-11.5614
output	-11.5615
gas	-11.5616
▁recordings	-11.5617
28	-11.562
▁soak	-11.5621
▁thriller	-11.5621
lio	-11.5622
▁chilled	-11.5623
▁cashews	-11.5626
▁Buy	-11.5631
▁narrator	-11.5632
▁equitable	-11.5632
tier	-11.5634
pet	-11.5636
▁spider	-11.5637
heat	-11.5638
▁rankings	-11.5638
▁reliance	-11.5639
▁engineer	-11.5641
-5	-11.5643
▁sy	-11.5645
▁Virginia	-11.5646
▁resonated	-11.5647
write	-11.5647
mort	-11.5651
ink	-11.5653
RC	-11.5658
star	-11.5658
▁TO	-11.5659
▁inclusion	-11.5662
▁cor	-11.5663
visit	-11.5667
▁Invest	-11.5668
▁pita	-11.567
▁uplifting	-11.5674
▁Angel	-11.5674
bble	-11.5675
▁retailer	-11.568
▁Baroque	-11.568
▁assemble	-11.568
▁philosophical	-11.568
OC	-11.5681
organized	-11.5687
▁commission	-11.5688
▁Walking	-11.5689
▁Nations	-11.5691
▁surf	-11.5696
next	-11.57
▁destroyed	-11.5702
▁Evelyn	-11.5704
▁Gratitude	-11.5704
▁frustrated	-11.5704
▁superior	-11.5704
▁shining	-11.5704
▁immersion	-11.5705
▁sparkling	-11.5706
▁Dev	-11.5707
▁twin	-11.5708
▁urge	-11.5714
nav	-11.5714
icle	-11.5715
▁Dec	-11.5715
▁calorie	-11.5716
▁Friend	-11.572
▁revealing	-11.5726
▁sad	-11.5728
▁bracelet	-11.5728
▁territory	-11.5728
▁inquiries	-11.5728
▁Persian	-11.5728
▁originated	-11.5729
▁15-20	-11.573
▁Loop	-11.573
▁Cro	-11.5732
close	-11.5735
▁union	-11.5736
▁finger	-11.5736
ature	-11.5739
▁upgrade	-11.5748
▁McC	-11.575
gh	-11.5752
▁Passage	-11.5752
▁nectar	-11.5752
▁raspberries	-11.5752
▁unsalted	-11.5752
▁Customers	-11.5753
▁salary	-11.5753
[0]	-11.5753
▁wore	-11.5753
▁simultaneously	-11.5754
▁producer	-11.5754
▁oak	-11.5754
46	-11.5759
▁Pad	-11.5761
Input	-11.5761
drop	-11.5765
▁profoundly	-11.5766
▁Regularly	-11.5767
burn	-11.5769
▁nodes	-11.5775
▁Part	-11.5776
▁Trello	-11.5777
▁sphere	-11.5777
▁Send	-11.5779
▁belt	-11.578
▁Child	-11.5782
▁Republican	-11.5785
▁breasts	-11.5786
OP	-11.5787
▁Char	-11.5795
▁firms	-11.5796
▁brewing	-11.5797
▁Mad	-11.5798
used	-11.5798
▁farms	-11.5799
imp	-11.5799
GB	-11.5799
88	-11.58
▁suspicious	-11.5801
▁hiring	-11.5801
▁Got	-11.5802
▁duties	-11.5802
▁debut	-11.5803
▁compares	-11.5807
▁Awards	-11.5809
words	-11.5812
vit	-11.5819
▁lovely	-11.5825
▁hydration	-11.5825
ich	-11.5828
▁tang	-11.5828
▁reveals	-11.5829
▁Cho	-11.5832
kel	-11.5834
▁representative	-11.5837
▁gems	-11.5838
▁Matt	-11.5838
Mar	-11.5838
▁Limited	-11.584
ila	-11.5842
▁commerce	-11.5844
▁facilitat	-11.5847
())	-11.5847
▁Because	-11.585
▁surprising	-11.585
▁antibiotic	-11.585
▁borrow	-11.585
NE	-11.5851
▁dropped	-11.5851
▁1970	-11.5852
▁reconnect	-11.5854
▁PC	-11.5856
▁lentil	-11.586
Sa	-11.5862
▁hill	-11.5864
▁clove	-11.5866
▁preserved	-11.5868
GO	-11.5868
nom	-11.5868
▁Olive	-11.587
▁dominant	-11.5874
▁decay	-11.5874
▁Collaborate	-11.5875
▁Islam	-11.5875
▁Performance	-11.5875
▁mimic	-11.5875
▁unclear	-11.5876
pop	-11.5876
78	-11.5877
▁Oak	-11.5878
▁Chef	-11.5879
Sc	-11.5885
▁separately	-11.5886
▁Gal	-11.5887
▁representatives	-11.589
Can	-11.589
▁Reduced	-11.5898
▁computers	-11.5898
▁Lower	-11.5899
▁Adventure	-11.5899
▁algebra	-11.5899
▁café	-11.5899
▁prototype	-11.5899
▁mysteries	-11.5899
▁iPhone	-11.5899
▁Almond	-11.59
CI	-11.59
▁maker	-11.59
▁Initially	-11.59
▁Craft	-11.5902
▁bikes	-11.5902
▁Tools	-11.5904
most	-11.5906
ban	-11.5906
LP	-11.5907
▁infection	-11.591
▁Bon	-11.5911
▁lectures	-11.5913
▁terrorist	-11.5915
▁subsequent	-11.5916
▁historians	-11.5917
bat	-11.5919
card	-11.592
▁Athens	-11.5924
▁blur	-11.5924
▁Garnish	-11.5924
▁linger	-11.5925
▁Making	-11.5925
▁attitudes	-11.5928
▁considerable	-11.5929
▁Hunt	-11.5931
▁bend	-11.5938
looking	-11.5941
▁Only	-11.5941
degree	-11.5942
Element	-11.5943
▁cre	-11.5944
borne	-11.5944
iling	-11.5947
▁autonomous	-11.5948
▁affair	-11.5948
▁20-25	-11.5948
▁desktop	-11.5949
▁holidays	-11.5949
▁compassionate	-11.595
▁overhead	-11.5951
▁guy	-11.5957
▁simpler	-11.5958
energy	-11.5959
▁pond	-11.596
OM	-11.5965
east	-11.5967
LA	-11.5969
▁Proper	-11.5969
Lo	-11.5971
▁jet	-11.5971
▁swirl	-11.5973
▁Short	-11.5973
▁gig	-11.5973
▁wraps	-11.5978
▁mineral	-11.598
▁regarded	-11.5981
▁Arabic	-11.5981
▁Station	-11.5983
▁beforehand	-11.5983
▁compound	-11.5985
▁Seeing	-11.5986
▁oneself	-11.5988
via	-11.5995
▁requir	-11.5996
▁blossom	-11.5998
▁tribute	-11.5998
▁Daily	-11.5998
▁Lucas	-11.5998
▁wildfire	-11.5998
▁executed	-11.5999
▁||	-11.6
▁Room	-11.6
▁2006	-11.6
▁scarf	-11.6
▁Imagine	-11.6005
uch	-11.6008
What	-11.601
▁scholarship	-11.6011
▁Collect	-11.6017
▁Springfield	-11.6017
▁Song	-11.6018
Map	-11.6022
▁compensation	-11.6023
▁diversity	-11.6023
▁hierarchy	-11.6023
▁screws	-11.6023
▁smoking	-11.6023
▁marvel	-11.6023
▁350°	-11.6024
rup	-11.6024
▁knowledgeable	-11.6025
ouch	-11.6025
▁Member	-11.6025
▁launching	-11.6025
▁whales	-11.6025
▁deposit	-11.6031
▁Cafe	-11.6034
▁archives	-11.6038
▁arrangement	-11.6039
ancy	-11.6043
▁mitigat	-11.6043
▁Far	-11.6044
▁attributes	-11.6046
▁Classic	-11.6046
▁375°	-11.6048
▁Prioritize	-11.6048
▁Smoothie	-11.6048
▁Technical	-11.6048
▁rehabilitation	-11.6048
▁rugged	-11.6048
txt	-11.6048
working	-11.605
▁remainder	-11.605
▁tracker	-11.6053
▁carvings	-11.6059
php	-11.6068
Star	-11.607
▁Physical	-11.6073
▁outlook	-11.6073
▁redemption	-11.6073
▁Canyon	-11.6073
▁Rob	-11.6074
▁Monte	-11.6074
▁Spice	-11.6075
▁Bol	-11.6076
ounce	-11.6077
▁deepened	-11.6078
▁reheat	-11.6079
rum	-11.608
▁Geo	-11.6082
proof	-11.6082
▁Walk	-11.6083
▁witnessed	-11.6085
▁Fre	-11.6086
▁carrot	-11.6087
enter	-11.6091
▁Cast	-11.6095
▁equivalent	-11.6098
▁rabbit	-11.6098
▁spicier	-11.6098
▁alternate	-11.6098
▁Cambridge	-11.6098
▁uppercase	-11.6098
▁skewers	-11.6106
nar	-11.6107
standing	-11.611
▁polished	-11.6111
▁appointments	-11.6111
▁conventions	-11.6118
▁Mushroom	-11.6123
▁dishwasher	-11.6123
▁suppress	-11.6123
▁humidity	-11.6124
▁Hinduism	-11.6125
▁"""	-11.6125
▁railway	-11.6125
▁supporters	-11.6126
▁rounds	-11.6127
▁stems	-11.6127
▁elevate	-11.6128
▁hardship	-11.6129
▁wr	-11.6133
▁electro	-11.6134
▁darker	-11.6135
hou	-11.6135
Educational	-11.6136
oriented	-11.6139
lick	-11.614
▁supplements	-11.6141
error	-11.6141
GC	-11.6141
cell	-11.6142
▁referrals	-11.6146
▁carbohydrates	-11.6148
▁galaxy	-11.6148
Awareness	-11.6148
▁chief	-11.6148
PR	-11.6149
▁robot	-11.6149
▁visualizations	-11.6149
cost	-11.615
▁adaptability	-11.6151
▁reflections	-11.6151
▁readability	-11.6155
▁bedtime	-11.6155
▁Players	-11.6158
▁Action	-11.6161
▁accus	-11.6161
▁Islands	-11.6162
▁heap	-11.6168
▁granted	-11.6169
izer	-11.617
▁Engine	-11.6173
▁Detective	-11.6173
▁Singapore	-11.6173
▁betrayal	-11.6173
▁Edward	-11.6174
▁Series	-11.6176
lash	-11.6178
▁nano	-11.6181
▁Dia	-11.6182
57	-11.6182
▁Eat	-11.6186
current	-11.6189
▁prospects	-11.6193
▁stitch	-11.6194
▁Nguyen	-11.6199
▁allergies	-11.6199
▁prosperity	-11.6199
▁Disney	-11.6199
▁Qua	-11.62
▁storms	-11.62
▁powdered	-11.6202
▁Iraq	-11.6205
▁Price	-11.6208
flower	-11.6214
▁bind	-11.6222
green	-11.6223
fall	-11.6223
▁certified	-11.6224
▁Gogh	-11.6225
▁considerations	-11.6227
item	-11.623
▁woven	-11.6231
▁sacrifices	-11.6232
▁dam	-11.6235
▁4)	-11.6236
▁Wars	-11.6237
56	-11.6237
mann	-11.6244
PD	-11.6246
▁Mod	-11.6249
▁automatic	-11.6249
▁Arizona	-11.6249
▁currency	-11.6249
▁caching	-11.625
▁Micro	-11.625
▁infant	-11.6251
▁Winter	-11.6252
▁Measure	-11.6254
▁drip	-11.6259
▁Luna	-11.6259
${	-11.6267
▁legends	-11.6269
▁Box	-11.627
▁gu	-11.6271
structured	-11.6271
VA	-11.6271
city	-11.6272
▁rides	-11.6273
▁Prepare	-11.6275
▁vegetation	-11.6275
▁allegations	-11.6275
▁Insight	-11.6276
▁smoother	-11.6279
HA	-11.628
▁tired	-11.628
image	-11.6282
▁rays	-11.6283
▁rear	-11.6283
▁beam	-11.6284
▁bears	-11.6288
▁Corp	-11.6289
disciplinary	-11.629
▁Opt	-11.6293
▁endure	-11.6297
0)	-11.6298
▁circles	-11.6299
▁stadium	-11.6301
▁Madrid	-11.6301
▁stove	-11.6301
▁aspirations	-11.6302
▁Julia	-11.6302
▁Wrap	-11.6303
▁Eric	-11.6303
▁outputs	-11.6304
▁Fle	-11.6305
▁broke	-11.631
OL	-11.6312
ark	-11.6316
▁Coach	-11.6317
changing	-11.6317
▁adjustable	-11.6319
iest	-11.6319
ibility	-11.6323
fra	-11.6325
▁province	-11.6326
▁styling	-11.6326
▁Anne	-11.6327
▁oceans	-11.6328
▁desires	-11.6329
▁cube	-11.6329
▁releases	-11.6333
▁Pra	-11.6333
OT	-11.6334
▁freshness	-11.6336
main	-11.634
▁myths	-11.634
nish	-11.6342
▁arch	-11.6345
stat	-11.6345
▁truck	-11.6346
▁pants	-11.6346
FC	-11.6348
▁allies	-11.6348
▁announcement	-11.6348
▁Introduction	-11.6348
▁dolphins	-11.635
plan	-11.6351
▁collision	-11.6352
▁Import	-11.6353
▁stamp	-11.6353
▁APA	-11.6355
▁adjusted	-11.6356
▁classification	-11.6356
▁Times	-11.6357
stan	-11.6359
2%	-11.6364
gni	-11.6365
▁clicks	-11.6366
aki	-11.6368
CP	-11.6369
▁Pick	-11.6371
▁Del	-11.6376
▁calcium	-11.6378
▁negotiate	-11.6378
▁spiral	-11.6378
▁residential	-11.6378
TC	-11.6378
▁Yo	-11.6381
▁Cancer	-11.6385
▁pub	-11.6385
▁ranking	-11.6385
▁harvesting	-11.639
acy	-11.6391
▁chip	-11.6394
▁disruptions	-11.6395
86	-11.6395
▁acquired	-11.6395
1`	-11.6396
▁eliminat	-11.6397
▁midst	-11.6398
▁Fan	-11.6398
▁Positive	-11.6399
▁...	-11.6402
▁boys	-11.6402
▁ruled	-11.6403
▁Alliance	-11.6404
▁fond	-11.6404
▁Divide	-11.6404
▁Jean	-11.6409
▁gestures	-11.6418
▁actor	-11.642
▁tempo	-11.6421
▁savor	-11.6421
-6	-11.6424
▁dispute	-11.6425
▁UI	-11.6425
▁Amsterdam	-11.6429
▁Netflix	-11.6429
▁itinerary	-11.6429
▁Directions	-11.643
▁marble	-11.643
▁depicts	-11.6431
Li	-11.6432
RT	-11.6432
▁Sounds	-11.6435
GA	-11.6435
▁>>	-11.6438
▁Node	-11.6438
parent	-11.6441
▁Flu	-11.6444
▁flip	-11.6445
▁bra	-11.6446
food	-11.6448
atory	-11.645
▁transitioning	-11.6453
▁limiting	-11.6455
▁quantity	-11.6455
▁renewal	-11.6455
▁refining	-11.6455
▁Firebase	-11.6456
▁Animal	-11.6456
▁Stephen	-11.6457
cel	-11.646
▁license	-11.6461
evolutionary	-11.6462
▁Hay	-11.6463
ux	-11.6463
rial	-11.6464
▁Nest	-11.6467
▁hopefully	-11.6468
▁donors	-11.6471
▁Herb	-11.6472
▁Spa	-11.6475
pass	-11.6476
▁personalization	-11.6477
MP	-11.6478
▁aliens	-11.6478
▁costume	-11.6478
▁Egg	-11.6479
▁disp	-11.648
▁abundance	-11.6481
▁Three	-11.6481
▁headphones	-11.6481
▁Console	-11.6482
▁entries	-11.6482
▁aquatic	-11.6482
Car	-11.6482
▁scream	-11.6483
▁vaccination	-11.6484
▁Brew	-11.6492
▁deck	-11.6495
stock	-11.6496
▁spells	-11.6501
University	-11.6502
41	-11.6502
UC	-11.6502
▁Fri	-11.6504
▁Khan	-11.6505
▁Hollywood	-11.6508
▁Industry	-11.6508
▁geology	-11.6508
▁jail	-11.6508
▁Snow	-11.651
▁mom	-11.6511
▁progresses	-11.6515
▁Soft	-11.6517
oke	-11.6517
authoring	-11.6519
33	-11.652
dar	-11.6521
▁Reading	-11.6525
alcoholic	-11.6526
▁armor	-11.6526
▁plank	-11.6529
▁Type	-11.653
▁blessings	-11.6531
mond	-11.6531
▁inhabit	-11.6534
▁Federal	-11.6534
▁glitter	-11.6534
▁spatula	-11.6534
▁unacceptable	-11.6534
Innovative	-11.6534
▁scoring	-11.6534
▁Movement	-11.6535
jan	-11.6535
▁feat	-11.6535
vor	-11.6536
▁compression	-11.6537
▁strap	-11.6541
▁closet	-11.6543
BI	-11.6543
▁sufficient	-11.6544
▁Mother	-11.6544
iki	-11.6545
▁Rica	-11.6554
▁cancel	-11.6556
▁sca	-11.6558
63	-11.6558
sorted	-11.656
▁Café	-11.656
▁appetizer	-11.656
▁guiding	-11.656
▁mystical	-11.656
▁leak	-11.656
▁occasional	-11.6561
knit	-11.6562
▁examines	-11.6562
76	-11.6562
gio	-11.6565
▁Grant	-11.6565
tone	-11.6566
▁Dip	-11.6567
emp	-11.6568
▁weddings	-11.6576
▁revolution	-11.6577
▁motivational	-11.658
▁Gate	-11.6581
▁hug	-11.6583
Fun	-11.6585
▁timelines	-11.6586
▁puppet	-11.6586
▁asteroid	-11.6586
▁straw	-11.6587
worm	-11.6587
▁Train	-11.6589
▁bakery	-11.6591
▁emb	-11.6592
▁Reward	-11.6593
▁MS	-11.6594
▁wetland	-11.6594
fully	-11.6597
▁appropriately	-11.6601
▁crowds	-11.6602
ander	-11.6604
3%	-11.6607
▁agility	-11.6613
▁worst	-11.6613
▁meteor	-11.6613
▁updating	-11.6613
▁impress	-11.6614
▁sal	-11.6614
▁greenery	-11.6616
▁insulation	-11.6617
▁adorned	-11.6619
▁hitting	-11.6619
CR	-11.6626
▁Mala	-11.6627
ika	-11.6627
▁lb	-11.6628
▁chatting	-11.6628
Ed	-11.6629
▁Scanner	-11.6633
▁rot	-11.6633
▁accessed	-11.6634
▁optional	-11.6635
▁tranquil	-11.6638
▁diamond	-11.6638
▁predictions	-11.6638
quin	-11.6639
▁reconsider	-11.6639
▁scalable	-11.6639
▁grease	-11.6639
▁meatballs	-11.6639
misunderstanding	-11.6639
▁lifespan	-11.6639
▁Peace	-11.664
▁Sliced	-11.6641
▁BBC	-11.6642
half	-11.6643
title	-11.6643
▁factory	-11.6644
eva	-11.6645
▁Active	-11.6645
▁panic	-11.6647
affle	-11.6647
▁sail	-11.6662
▁Chan	-11.6662
▁Artist	-11.6663
▁butterflies	-11.6666
▁controversy	-11.6666
▁divisible	-11.6666
▁versatility	-11.6666
▁Integration	-11.6666
colored	-11.6666
▁Present	-11.6667
▁scanner	-11.6667
▁unlike	-11.6667
Random	-11.6669
▁Rich	-11.6671
▁loops	-11.6672
▁Ji	-11.6674
yer	-11.6679
▁negotiations	-11.668
▁sleeping	-11.6686
▁Hart	-11.6686
▁founder	-11.6688
▁deer	-11.6691
▁Lentil	-11.6692
▁glucose	-11.6692
▁optimistic	-11.6692
▁copper	-11.6692
▁transaction	-11.6693
▁Navy	-11.6693
▁whitespace	-11.6694
▁instructors	-11.6695
▁mentoring	-11.6697
▁Gl	-11.6697
IM	-11.6698
▁squeeze	-11.6699
▁info	-11.6703
▁Rio	-11.6703
69	-11.6705
▁150	-11.6706
▁Agriculture	-11.6707
cate	-11.6708
▁accents	-11.6711
▁steal	-11.6712
▁wedges	-11.6713
▁Kh	-11.6715
▁Method	-11.6719
▁qualified	-11.6719
▁Organic	-11.6719
▁Wildlife	-11.6719
5°	-11.6721
▁Norman	-11.6721
▁fibers	-11.6722
▁backdrop	-11.6723
▁bulbs	-11.6723
▁Grace	-11.6723
▁grams	-11.6726
▁10%	-11.6728
2023	-11.6729
▁Secondly	-11.673
▁databases	-11.6731
▁parse	-11.6731
▁soften	-11.6732
iction	-11.6734
cooked	-11.6737
▁facilitated	-11.6739
▁FA	-11.674
▁Function	-11.6746
▁cricket	-11.6746
▁eligible	-11.6746
▁Film	-11.6746
▁Radio	-11.6747
▁poly	-11.6748
▁Developing	-11.6751
inter	-11.6751
▁wise	-11.6751
ically	-11.6755
1%	-11.6757
▁picked	-11.6758
▁pear	-11.6763
▁checkout	-11.6764
▁transforming	-11.6767
▁rebuild	-11.6767
example	-11.6769
season	-11.677
▁rug	-11.6773
▁Prize	-11.6773
▁Pack	-11.6774
▁stolen	-11.6774
osa	-11.6775
▁mechanical	-11.6776
▁rocky	-11.6776
lac	-11.6777
▁Person	-11.6786
▁Style	-11.6786
▁Tru	-11.6787
sign	-11.6787
rai	-11.6789
▁triggers	-11.6792
▁alignment	-11.6792
05	-11.6798
▁trim	-11.6799
▁eagle	-11.6799
▁efficacy	-11.6799
awa	-11.6806
▁adaptive	-11.6806
cca	-11.6806
](	-11.6808
▁Beat	-11.6809
AI	-11.6809
▁reuse	-11.6809
▁equations	-11.6809
mix	-11.6809
left	-11.6816
▁oranges	-11.6818
mun	-11.6819
▁Mel	-11.682
▁Kids	-11.6824
udge	-11.6824
▁regime	-11.6825
Al	-11.6825
▁suicide	-11.6826
▁treacherous	-11.6826
▁laboratory	-11.6827
▁Parent	-11.6829
PE	-11.683
Ra	-11.6835
▁assume	-11.6835
87	-11.6837
▁Costa	-11.6841
▁invasive	-11.6842
▁Win	-11.6848
▁Jon	-11.685
digit	-11.6851
Please	-11.6851
▁12-	-11.6851
but	-11.6853
▁opposite	-11.6853
▁ordinary	-11.6853
▁pecans	-11.6853
▁otherworldly	-11.6853
▁ankle	-11.6854
▁livestock	-11.6855
▁formations	-11.6855
▁initialize	-11.6857
▁hinder	-11.6858
▁grapes	-11.6858
▁tick	-11.686
▁insect	-11.6862
▁bat	-11.6862
`)	-11.6867
▁shifts	-11.687
▁CA	-11.6872
▁Ana	-11.6874
▁cooler	-11.6876
taking	-11.6879
▁evaluating	-11.688
▁Carrot	-11.688
▁animated	-11.6881
▁stance	-11.6881
▁bride	-11.6882
▁1990	-11.6882
▁Collection	-11.6883
node	-11.6886
▁Lady	-11.6886
▁Simon	-11.6888
▁specialty	-11.6892
▁cited	-11.6895
▁Victoria	-11.6902
▁slave	-11.6906
scenes	-11.6907
▁indulge	-11.6907
▁hasn	-11.6907
▁Cameron	-11.6908
▁Michigan	-11.6908
▁adolescent	-11.6908
▁pleasing	-11.6908
▁fault	-11.6908
▁Sugar	-11.6909
▁RE	-11.6912
▁suffer	-11.6912
uri	-11.6913
▁Ger	-11.6914
chu	-11.6914
ili	-11.6914
66	-11.6915
▁worker	-11.6922
▁equality	-11.6928
▁yard	-11.6928
▁applicable	-11.6935
▁utilizes	-11.6935
▁emergence	-11.6935
▁Martinez	-11.6935
ope	-11.6937
▁Joseph	-11.6937
EX	-11.6937
▁medications	-11.6939
▁Jen	-11.694
▁hunger	-11.694
rink	-11.6941
▁preheated	-11.6941
▁reserved	-11.6942
▁allocate	-11.6942
▁compile	-11.6943
▁Hor	-11.6944
▁extensively	-11.6946
▁bridges	-11.6949
home	-11.695
▁posed	-11.6952
▁transitions	-11.6954
kind	-11.6956
▁pediatric	-11.6962
▁purity	-11.6962
▁ruling	-11.6962
▁lawsuit	-11.6963
▁Side	-11.6963
▁Kenya	-11.6964
▁Computer	-11.6964
▁braid	-11.6964
▁Excel	-11.6964
▁floating	-11.6967
▁Whole	-11.6968
▁render	-11.6976
ality	-11.6977
temp	-11.6978
▁crimes	-11.6981
▁refugees	-11.6983
▁grape	-11.6985
▁Marie	-11.6987
doubt	-11.6989
▁Desert	-11.699
▁Initiative	-11.699
▁administrative	-11.699
▁gadget	-11.699
▁manifest	-11.699
▁phenomenon	-11.699
▁artisans	-11.699
▁funeral	-11.699
fold	-11.699
▁Target	-11.699
▁Ep	-11.6991
och	-11.6991
▁vs	-11.6992
▁Wales	-11.6994
▁traditionally	-11.6994
▁Leave	-11.6995
kan	-11.6999
▁Vol	-11.7007
▁repairs	-11.7011
▁sketch	-11.7013
Ex	-11.7013
▁Wil	-11.7014
▁detected	-11.7015
screen	-11.7016
▁tahini	-11.7017
▁tempeh	-11.7017
▁crafting	-11.7021
▁warranty	-11.7022
▁Impact	-11.7023
take	-11.7036
▁lace	-11.7036
93	-11.7038
▁portrayed	-11.704
axis	-11.7041
▁anticipation	-11.7045
▁recurring	-11.7045
▁rainfall	-11.7045
▁profitability	-11.7045
▁Benefits	-11.7045
▁Airport	-11.7046
)`	-11.7049
▁dill	-11.7049
▁rust	-11.7051
92	-11.7052
▁admire	-11.7052
▁seniors	-11.7055
une	-11.7057
tial	-11.7057
▁badge	-11.706
▁Encouraging	-11.7072
▁hiding	-11.7072
▁denied	-11.7072
▁energized	-11.7072
smiling	-11.7073
▁wins	-11.7074
▁fake	-11.7075
▁Stick	-11.7075
▁Easter	-11.7077
▁demons	-11.7077
▁portal	-11.7083
▁argues	-11.7092
▁Rest	-11.7093
▁circulation	-11.71
▁contributor	-11.71
▁synthetic	-11.71
▁viral	-11.71
▁Maple	-11.7101
▁Ray	-11.7101
▁snakes	-11.7103
second	-11.7103
▁iteration	-11.7103
▁herbal	-11.7104
▁indicators	-11.7105
▁conventional	-11.7107
▁couples	-11.7107
scribe	-11.7108
▁Innovation	-11.711
52	-11.711
7%	-11.7111
▁operates	-11.7112
block	-11.7113
SL	-11.7114
▁oh	-11.7115
zel	-11.7118
▁Hawaii	-11.7125
▁Along	-11.7125
lab	-11.7127
▁tar	-11.7128
▁knock	-11.7128
▁replacing	-11.7128
▁skirt	-11.7128
▁freelance	-11.7128
▁Simple	-11.7128
▁garment	-11.7128
▁envision	-11.7128
▁persistence	-11.7128
hur	-11.7131
▁nor	-11.7131
3)	-11.7135
▁associations	-11.7135
dio	-11.7137
aj	-11.714
▁grounded	-11.7144
▁Policy	-11.7144
▁tablets	-11.7145
threatening	-11.7146
è	-11.7147
▁corrupt	-11.7153
5)	-11.7155
27	-11.7155
▁cultivating	-11.7156
▁diagnostic	-11.7156
▁Conclusion	-11.7156
▁Area	-11.7157
▁artworks	-11.7158
▁Ter	-11.7159
▁headings	-11.7164
▁Vegetable	-11.7165
▁supplier	-11.7165
gel	-11.7165
▁drawer	-11.717
▁lucky	-11.7171
▁commands	-11.7171
vant	-11.7173
sea	-11.7173
▁Israeli	-11.7176
▁flora	-11.7181
▁calculating	-11.7184
▁equity	-11.7184
▁diplomatic	-11.7184
▁Norway	-11.7184
▁Miami	-11.7185
▁Things	-11.7185
uro	-11.7186
▁progressive	-11.7187
▁PR	-11.7189
▁advise	-11.7192
▁segments	-11.7193
▁dig	-11.7197
▁mesh	-11.7197
62	-11.7197
▁diagnosed	-11.7204
Set	-11.7208
▁enroll	-11.721
▁Afghanistan	-11.7212
▁Senior	-11.7212
▁accelerate	-11.7212
▁Kitchen	-11.7212
▁Compose	-11.7212
▁Ohio	-11.7214
▁props	-11.7216
AG	-11.7217
rel	-11.7218
▁operators	-11.7218
▁Nile	-11.7221
▁repeated	-11.7221
▁Carbon	-11.7223
▁fare	-11.7225
4)	-11.7225
nation	-11.7233
▁profession	-11.7234
▁hue	-11.7238
▁lie	-11.7238
6%	-11.7239
▁Congratulations	-11.724
▁crazy	-11.724
▁syntax	-11.724
▁slope	-11.724
▁Iceland	-11.7241
▁caramelized	-11.7241
hol	-11.7241
▁tutoring	-11.7242
▁2005	-11.7243
74	-11.7244
▁emit	-11.7246
▁reception	-11.7248
▁genes	-11.7248
▁chirping	-11.7249
Cl	-11.7255
▁Catch	-11.7256
▁Mrs	-11.7257
playing	-11.7258
▁readable	-11.7265
▁ill	-11.7266
▁Committee	-11.7268
▁Jonathan	-11.7268
▁empathetic	-11.7268
▁probably	-11.7268
▁sponge	-11.7268
54	-11.7269
▁vase	-11.7269
▁mouse	-11.7273
▁heroes	-11.728
▁oversee	-11.7282
▁conveying	-11.7282
▁lung	-11.7283
▁Teachers	-11.7287
▁Gui	-11.7289
▁$3	-11.7289
▁compute	-11.7291
door	-11.7295
▁stomach	-11.7296
▁undoubtedly	-11.7296
▁Maori	-11.7297
arch	-11.7297
▁stainless	-11.7297
PC	-11.7298
itis	-11.7298
▁advertisement	-11.7301
▁secondary	-11.7301
▁queen	-11.7302
▁medal	-11.7305
▁Py	-11.731
▁breach	-11.731
▁Vegetables	-11.7315
▁thrill	-11.7316
▁alliances	-11.7317
rab	-11.732
▁caring	-11.7324
▁ethnic	-11.7324
bert	-11.7325
▁feast	-11.7326
▁coloring	-11.7327
rah	-11.7328
ón	-11.7329
found	-11.733
▁spare	-11.7331
▁adaptable	-11.7335
▁prizes	-11.7336
▁permission	-11.7338
▁Promote	-11.7344
motion	-11.7345
▁alleg	-11.7345
Sha	-11.7347
▁"))	-11.7348
95	-11.7352
search	-11.7352
▁dictionary	-11.7353
▁frustrating	-11.7353
▁admit	-11.7353
▁hyper	-11.7353
▁Ads	-11.736
Fit	-11.7363
▁Bread	-11.7363
▁Cycl	-11.7366
▁gesture	-11.7366
▁pale	-11.7369
▁tablet	-11.7372
▁mentally	-11.7374
3,000	-11.7376
▁flames	-11.738
▁Fahrenheit	-11.7381
▁Feedback	-11.7381
▁energetic	-11.7381
▁sunrise	-11.7381
▁symposium	-11.7381
▁diameter	-11.7381
▁regain	-11.7381
▁Homemade	-11.7382
▁Brother	-11.7383
▁tagline	-11.7384
STEM	-11.7387
▁Victorian	-11.7388
▁tooth	-11.739
▁souls	-11.739
▁marketers	-11.7393
▁gum	-11.7394
▁mud	-11.7394
trans	-11.7394
aid	-11.7395
▁chapters	-11.7396
▁Holy	-11.7396
▁thicker	-11.7399
▁Hang	-11.74
▁coworkers	-11.7404
▁empowering	-11.7405
▁developer	-11.7405
▁fleeting	-11.7406
▁plus	-11.7406
▁cycles	-11.7408
▁Innovations	-11.7409
▁bunch	-11.741
▁Vietnam	-11.741
▁issued	-11.741
▁escalate	-11.741
▁foliage	-11.741
▁wolves	-11.741
▁Easy	-11.741
:=	-11.741
▁registered	-11.741
▁firewall	-11.7411
SU	-11.7411
▁Limit	-11.7411
Man	-11.7415
▁touched	-11.7418
▁Cake	-11.7419
▁churches	-11.7421
▁consulting	-11.7421
road	-11.7428
shot	-11.743
▁Quality	-11.743
▁Nigeria	-11.7431
▁hips	-11.7433
▁Dog	-11.7435
▁Er	-11.7436
▁Championship	-11.7438
▁Chickpea	-11.7438
▁Orleans	-11.7438
▁Shadow	-11.7438
▁longevity	-11.7438
▁principal	-11.7438
▁Jazz	-11.7439
▁persistent	-11.7439
▁screenplay	-11.744
▁sonnet	-11.744
4%	-11.7443
sensitive	-11.7445
▁->	-11.7447
Sh	-11.7451
Source	-11.7455
▁Working	-11.7455
▁chairs	-11.7458
BS	-11.746
▁rum	-11.7461
lop	-11.7462
▁Cy	-11.7463
▁deter	-11.7464
▁Researchers	-11.7467
▁Rodriguez	-11.7467
▁dinosaur	-11.7467
▁gauge	-11.7467
▁remedies	-11.7467
▁cruise	-11.7467
▁revenge	-11.7467
▁rebels	-11.7467
▁provision	-11.7468
▁predictive	-11.7471
▁Karen	-11.7473
▁turtles	-11.7473
▁(3	-11.7478
fici	-11.748
▁Iron	-11.7483
▁cache	-11.7484
▁Tag	-11.7488
▁Cathedral	-11.7496
▁Harvard	-11.7496
▁Veggie	-11.7496
▁fundraiser	-11.7496
▁Gulf	-11.7496
▁admitted	-11.7497
Sp	-11.7498
▁budgeting	-11.7502
password	-11.7503
▁morale	-11.7506
Go	-11.7508
▁heights	-11.7508
▁Tur	-11.7509
▁Disease	-11.7511
▁kid	-11.7513
▁Bad	-11.7518
▁instructional	-11.7521
CM	-11.7522
▁wit	-11.7525
▁homeless	-11.7525
▁elastic	-11.7525
▁inflation	-11.7525
▁permit	-11.7528
▁SSL	-11.7529
▁Med	-11.7532
▁albums	-11.7533
▁Dy	-11.7533
▁hopeful	-11.7536
▁Steven	-11.754
▁Miller	-11.7541
elli	-11.7543
▁Inside	-11.7546
▁absolute	-11.7546
wait	-11.7547
lav	-11.7549
▁Ber	-11.7551
▁consuming	-11.7551
53	-11.7552
▁Atlantic	-11.7554
▁climax	-11.7554
▁ascending	-11.7554
▁Samsung	-11.7554
▁Collaborating	-11.7554
▁soar	-11.7554
▁autism	-11.7554
▁tongue	-11.7554
▁crawl	-11.7554
▁Trump	-11.7554
▁Account	-11.7555
▁Dam	-11.7555
utter	-11.7556
▁grades	-11.7558
TM	-11.7561
▁eruption	-11.7561
focused	-11.7563
▁rotate	-11.7563
▁consultant	-11.7563
▁perceived	-11.7569
▁gel	-11.7571
▁defeated	-11.7572
▁Need	-11.7573
mingly	-11.7574
ride	-11.7575
dom	-11.7577
▁succulent	-11.7583
▁devote	-11.7583
▁gaze	-11.7584
▁picturesque	-11.7585
ement	-11.7585
▁rings	-11.7586
▁neighbors	-11.7588
Eco	-11.759
▁blast	-11.7591
here	-11.7591
▁Gro	-11.7592
chen	-11.7593
▁fallen	-11.7594
▁refresh	-11.7594
▁intervals	-11.7596
▁continent	-11.7599
▁veggie	-11.7601
▁conveyed	-11.7601
rock	-11.7606
▁Client	-11.7607
ico	-11.7607
▁commit	-11.7607
▁contracts	-11.7609
▁boiled	-11.761
▁metric	-11.761
▁Halloween	-11.7612
▁risotto	-11.7612
▁sediment	-11.7612
▁syndrome	-11.7612
▁verb	-11.7613
▁patent	-11.7613
▁revolutionized	-11.7617
▁mantra	-11.7617
▁Pepper	-11.7617
700	-11.7618
▁confirmation	-11.762
pol	-11.7621
wind	-11.7624
▁handful	-11.7624
▁citation	-11.763
band	-11.7633
▁particle	-11.7635
▁Rev	-11.7635
▁INT	-11.7641
▁Governor	-11.7641
▁examination	-11.7641
▁generator	-11.7641
▁volcano	-11.7642
▁motives	-11.7643
▁legendary	-11.7643
▁commentary	-11.7644
▁giveaway	-11.7645
▁credits	-11.7646
▁goddesses	-11.7647
▁reasonable	-11.7647
▁acquire	-11.7651
▁cabinet	-11.7651
berries	-11.7651
wall	-11.7651
Count	-11.7651
▁AC	-11.7653
▁acknowledged	-11.7653
▁stews	-11.7653
▁1,000	-11.7655
nny	-11.7655
Don	-11.7656
article	-11.7656
element	-11.7658
▁packet	-11.7659
61	-11.7662
34	-11.7664
▁Rub	-11.7667
▁Arsenal	-11.7671
▁displacement	-11.7671
▁heartwarming	-11.7671
▁nursing	-11.7671
▁surveillance	-11.7671
▁drift	-11.7671
▁eternal	-11.7671
▁exhale	-11.7671
▁Dress	-11.7671
▁Something	-11.7671
▁discard	-11.7672
PO	-11.7672
▁lips	-11.7673
RS	-11.7674
▁virtually	-11.7674
▁scrap	-11.7676
▁Drink	-11.7677
App	-11.7678
▁Fox	-11.7678
51	-11.7681
▁darkest	-11.7685
▁siblings	-11.7696
break	-11.7698
▁measured	-11.7699
▁promoted	-11.77
▁attorney	-11.77
▁barbecue	-11.77
▁Pizza	-11.77
▁Attach	-11.77
▁400°	-11.7701
▁referring	-11.7701
▁cardboard	-11.7703
▁Romantic	-11.7705
▁textile	-11.7707
Historical	-11.771
dir	-11.7712
▁absorbed	-11.7712
▁disappear	-11.7712
▁ports	-11.7713
▁Patient	-11.7719
▁ordering	-11.7722
▁remembered	-11.7722
▁astronomical	-11.773
▁velvet	-11.773
▁anytime	-11.773
▁Mass	-11.7731
grabbing	-11.7731
zer	-11.7734
▁Baby	-11.7735
▁pH	-11.7744
71	-11.775
▁listings	-11.7752
▁[]	-11.7753
▁satisfy	-11.7755
risk	-11.7756
▁talents	-11.7757
▁Memorial	-11.7759
▁conviction	-11.7759
▁merchandise	-11.7759
▁owl	-11.7759
uth	-11.776
umble	-11.776
root	-11.7761
▁till	-11.7764
rou	-11.7765
▁breakthroughs	-11.7766
▁Tele	-11.7768
▁preparedness	-11.7768
integer	-11.777
48	-11.7776
▁mug	-11.7777
hole	-11.7778
▁liver	-11.7779
▁owned	-11.7784
▁Eleanor	-11.7789
▁altogether	-11.7789
▁cranberries	-11.7789
▁releasing	-11.7789
▁scalability	-11.7789
▁PDF	-11.7789
▁Crown	-11.7789
▁stake	-11.7791
▁backyard	-11.7792
▁angel	-11.7793
▁repeatedly	-11.7797
▁Sim	-11.7798
Work	-11.78
Comm	-11.7801
▁Bus	-11.7803
▁sacrific	-11.7806
come	-11.7808
EdTech	-11.7809
▁datasets	-11.7813
▁shifting	-11.7815
▁Harris	-11.7816
▁File	-11.7816
07	-11.7817
▁corporation	-11.7819
▁disposal	-11.7819
▁hilarious	-11.7819
▁Survey	-11.7819
▁brake	-11.7819
▁hazards	-11.7819
▁summit	-11.7821
▁brass	-11.7823
▁finishing	-11.7823
▁Pin	-11.7824
▁taxi	-11.7827
▁resemble	-11.7831
▁stayed	-11.7834
▁Site	-11.7837
maker	-11.7845
▁exploit	-11.7847
▁fragment	-11.7847
▁jewel	-11.7848
▁deforestation	-11.7848
▁jargon	-11.7848
▁removal	-11.7848
▁suspension	-11.7848
▁territories	-11.7848
▁scarcity	-11.7849
▁lunar	-11.7849
▁leaks	-11.7851
▁Curry	-11.7852
▁Shin	-11.7859
email	-11.7861
▁crush	-11.7863
trip	-11.7863
▁beaten	-11.7863
▁calculations	-11.7864
TV	-11.7871
▁blades	-11.7871
▁pivot	-11.7873
-10	-11.7875
▁Engaging	-11.7878
▁celebrity	-11.7878
▁immigration	-11.7878
▁meadow	-11.7878
▁invasion	-11.7878
▁println	-11.7879
uni	-11.788
▁Better	-11.7883
▁Ze	-11.7883
▁1950	-11.7884
▁polls	-11.7887
instruction	-11.7891
sale	-11.7891
2`	-11.7898
▁switching	-11.7904
▁critics	-11.7904
▁sodium	-11.7905
Academic	-11.7908
▁definition	-11.7908
▁watermelon	-11.7908
▁wildflowers	-11.7908
▁analytical	-11.7908
▁barrel	-11.7909
▁Resort	-11.7912
04	-11.7914
vice	-11.7916
biotic	-11.7916
▁shortly	-11.7918
▁mixer	-11.792
▁Avi	-11.792
▁convinced	-11.7923
▁corners	-11.7927
▁enzymes	-11.7931
Engagement	-11.7934
rain	-11.7935
gor	-11.7935
▁caution	-11.7939
▁Lewis	-11.7939
▁flaws	-11.7939
▁championship	-11.7939
73	-11.7939
▁numerical	-11.7939
▁rooftop	-11.794
▁bugs	-11.7941
▁Tar	-11.7951
▁Maintain	-11.7953
eck	-11.7953
▁burned	-11.7956
▁spelling	-11.7957
OW	-11.7965
▁Interested	-11.7969
hl	-11.7971
▁Albert	-11.7971
▁organs	-11.7971
▁bites	-11.7982
Whi	-11.7983
▁vowels	-11.7984
Free	-11.7984
▁Count	-11.7985
Book	-11.7986
▁ants	-11.7993
▁coal	-11.7995
Per	-11.7996
▁anniversary	-11.7999
▁buried	-11.7999
▁credentials	-11.7999
▁desperate	-11.7999
▁perfume	-11.7999
reproductive	-11.7999
emi	-11.8
▁centre	-11.8
▁holder	-11.8003
"]	-11.8004
▁carbs	-11.8005
▁Urban	-11.8008
▁crashing	-11.8009
▁immensely	-11.8012
which	-11.8014
▁permissions	-11.8016
▁Educational	-11.802
▁protest	-11.8024
▁Spend	-11.8025
▁Essay	-11.8029
▁administrator	-11.8029
▁boutique	-11.8029
▁vocalizations	-11.803
▁Tesla	-11.803
▁painter	-11.803
▁roar	-11.803
▁persist	-11.803
▁Programs	-11.8034
▁disciplines	-11.8035
hill	-11.8037
▁strengthening	-11.804
▁Paper	-11.8043
Project	-11.8045
▁Years	-11.8048
▁exams	-11.8049
erva	-11.8049
▁depiction	-11.8049
▁mash	-11.8051
erman	-11.8052
Factor	-11.8054
▁recognizable	-11.806
ENT	-11.8064
▁Edit	-11.8067
▁stepped	-11.807
▁Kit	-11.807
▁settle	-11.8073
▁Tony	-11.8074
▁Laura	-11.8075
▁View	-11.8076
atic	-11.8077
post	-11.8083
▁sparkle	-11.8087
learning	-11.8087
▁snake	-11.8088
▁boats	-11.8088
▁Campaign	-11.8091
▁entities	-11.8091
▁Hawk	-11.8091
▁signaling	-11.8095
▁benefited	-11.8102
▁steamed	-11.8103
▁Columbia	-11.8103
▁doubts	-11.8104
▁lifting	-11.8104
▁crumble	-11.8105
lift	-11.8105
▁outlined	-11.8108
▁medals	-11.8109
▁refund	-11.8111
9%	-11.8112
▁compositions	-11.8115
▁bloggers	-11.8115
▁Phil	-11.8117
suit	-11.812
▁Byzantine	-11.8121
▁Breakfast	-11.8121
rov	-11.8124
metric	-11.8124
core	-11.8124
▁Biology	-11.8125
▁Healthy	-11.8126
▁1]	-11.8126
ó	-11.8128
▁Mash	-11.8133
▁cooled	-11.8136
▁trick	-11.8139
▁Draw	-11.8141
defined	-11.8144
▁cute	-11.8148
▁cinema	-11.8151
▁cutter	-11.8151
▁soldier	-11.8152
▁Spirit	-11.8152
▁omniscient	-11.8152
▁soundtrack	-11.8152
▁Spinach	-11.8152
▁Glass	-11.8152
▁digging	-11.8152
▁outlets	-11.8153
lang	-11.8159
▁filed	-11.8159
▁wherever	-11.816
▁Quantum	-11.8162
▁sponsor	-11.8165
▁vaccines	-11.8165
▁restored	-11.8167
▁rooted	-11.8168
terconnectedness	-11.817
▁attacked	-11.8172
▁Lan	-11.8175
▁showcased	-11.8179
▁detecting	-11.8182
▁WordPress	-11.8183
▁gradient	-11.8183
▁rebellion	-11.8183
▁ricotta	-11.8183
▁transcend	-11.8183
▁bicycle	-11.8183
▁suite	-11.8184
▁classmates	-11.8186
▁acidity	-11.8186
▁hairstyle	-11.8188
▁Found	-11.8188
▁expose	-11.8189
▁floods	-11.8198
System	-11.82
Language	-11.82
Conference	-11.82
content	-11.82
radius	-11.82
Teacher	-11.8201
▁fatal	-11.8201
▁pathways	-11.8204
▁villain	-11.8205
▁Core	-11.8206
▁zip	-11.8208
▁Mur	-11.8214
▁Assistant	-11.8214
▁Role	-11.8214
▁jeans	-11.8214
▁amazed	-11.8214
▁synthesis	-11.8214
▁clash	-11.8215
▁rainwater	-11.8215
▁colonialism	-11.8216
▁understandable	-11.8217
▁profits	-11.8218
08	-11.822
▁tutor	-11.8221
▁unlikely	-11.8223
▁Mari	-11.8225
ographic	-11.8226
▁mayo	-11.8226
fr	-11.8228
active	-11.8228
hon	-11.8228
▁stranded	-11.8229
▁8:	-11.8231
distance	-11.8232
▁Bull	-11.8232
▁Push	-11.8234
▁pause	-11.8237
far	-11.8239
▁Course	-11.8244
▁Matthew	-11.8245
▁anatomy	-11.8245
▁merchant	-11.8245
▁translucent	-11.8245
▁Kevin	-11.8245
▁Creek	-11.8245
▁agreements	-11.8246
▁Convert	-11.8247
▁beating	-11.8247
▁Brazilian	-11.8248
▁fame	-11.8248
▁slight	-11.8253
dec	-11.8254
▁finances	-11.8258
process	-11.8262
▁una	-11.8262
▁recycle	-11.8264
▁wh	-11.8264
▁endl	-11.8268
▁kiss	-11.8269
▁lover	-11.827
23	-11.8275
▁drones	-11.8275
Literacy	-11.8276
▁procrastination	-11.8276
▁vineyard	-11.8276
kins	-11.8278
▁Sharing	-11.8278
▁drone	-11.8278
RM	-11.8285
away	-11.8286
▁cow	-11.8287
▁prayers	-11.829
mission	-11.8295
▁muffins	-11.8297
▁listened	-11.8298
58	-11.8299
▁logs	-11.8301
▁java	-11.8305
▁visitor	-11.8305
pil	-11.8306
▁Peanut	-11.8307
▁Strength	-11.8307
▁caregiver	-11.8307
▁dynasty	-11.8307
▁sophistication	-11.8307
▁solace	-11.8307
▁Ridge	-11.8307
▁beverages	-11.8308
▁mortality	-11.8308
▁Band	-11.8308
▁unwind	-11.8309
▁lotus	-11.8311
▁macro	-11.8315
▁Thor	-11.8315
▁Carl	-11.8316
▁winners	-11.8316
username	-11.8316
▁(`	-11.8317
▁conclude	-11.8318
IL	-11.8321
▁#{	-11.8324
developed	-11.8327
▁clearer	-11.8328
▁admiration	-11.8339
▁potassium	-11.8339
▁Whit	-11.8341
▁demonstration	-11.8341
▁Death	-11.8343
▁opponents	-11.8345
Ha	-11.8345
▁layered	-11.8349
▁Chart	-11.835
▁Governments	-11.8354
▁chic	-11.8354
perfect	-11.8356
Jo	-11.836
eye	-11.8363
MB	-11.8368
Reg	-11.8369
▁Dubai	-11.837
▁Participants	-11.837
▁caffeine	-11.837
▁globe	-11.837
▁majestic	-11.837
▁Spicy	-11.837
▁dominance	-11.837
▁continually	-11.837
▁Gallery	-11.837
▁innovate	-11.8371
▁compris	-11.8371
▁proposition	-11.8371
▁HR	-11.838
een	-11.8384
▁Mini	-11.8384
▁graduates	-11.8387
▁Past	-11.8389
fil	-11.8391
omb	-11.8396
▁Gre	-11.8396
▁Chill	-11.8397
help	-11.8398
zu	-11.84
ا	-11.8402
▁Gluten	-11.8402
▁adrenaline	-11.8402
▁burrito	-11.8402
▁Champions	-11.8402
▁Platform	-11.8402
▁coordinating	-11.8402
▁degradation	-11.8402
▁educating	-11.8402
▁Influencer	-11.8402
▁garage	-11.8402
▁Perfect	-11.8402
▁grey	-11.8402
Saxon	-11.8405
▁Slowly	-11.8408
prop	-11.8409
▁Full	-11.8409
Min	-11.8409
▁souvenirs	-11.841
▁farmer	-11.841
▁explorers	-11.8415
▁machinery	-11.8416
fuel	-11.8416
▁Ran	-11.8422
26	-11.8422
▁Engagement	-11.8422
▁realization	-11.8423
▁sculpt	-11.8433
▁AWESOME	-11.8433
▁analyst	-11.8433
▁divorce	-11.8433
▁imperative	-11.8433
▁Northwest	-11.8433
▁embraced	-11.8434
▁culminat	-11.8435
▁principle	-11.8437
▁carries	-11.8437
▁contests	-11.8438
▁ghostly	-11.8447
▁fractions	-11.845
▁valve	-11.8451
▁finishes	-11.8454
▁weave	-11.8458
▁takeaways	-11.8458
▁usability	-11.8459
nan	-11.8459
▁Voice	-11.8464
▁altitude	-11.8465
▁oatmeal	-11.8465
▁Fitness	-11.8465
▁lounge	-11.8465
carbon	-11.8466
▁Anyway	-11.8471
8%	-11.8472
pack	-11.8478
dale	-11.8479
▁accepting	-11.8479
▁*/	-11.8482
▁conditioning	-11.849
▁sweeter	-11.8492
([	-11.8492
▁Phone	-11.8493
▁traumatic	-11.8495
▁activism	-11.8497
▁flavour	-11.8497
▁vibration	-11.8497
▁Effective	-11.8497
▁Evaluate	-11.8497
▁tweak	-11.8497
▁embellishments	-11.8497
▁actress	-11.8497
▁trivia	-11.8497
▁Arrange	-11.8498
▁Country	-11.8498
▁Therapy	-11.8499
▁intent	-11.8502
▁inspection	-11.8506
▁½	-11.851
▁questioning	-11.8514
nell	-11.8514
tab	-11.8516
▁laughing	-11.8519
Sort	-11.8523
location	-11.8523
▁crossed	-11.8526
▁Coll	-11.8529
▁Alzheimer	-11.8529
▁enterprise	-11.8529
▁captain	-11.8529
▁complications	-11.8529
▁agile	-11.8529
▁puff	-11.8534
grad	-11.8536
▁argued	-11.8537
▁deities	-11.8538
81	-11.8541
▁sautéed	-11.8543
▁tissues	-11.8545
connect	-11.8545
SM	-11.8548
join	-11.8548
▁Ross	-11.8552
Vi	-11.8552
Child	-11.8553
▁boosting	-11.8556
nut	-11.8558
▁Political	-11.8561
▁grandeur	-11.8561
▁renovation	-11.8561
▁astrophysic	-11.8561
▁inhibit	-11.8561
▁Beauty	-11.8561
▁rocket	-11.8562
aven	-11.8564
▁playground	-11.8564
▁sunny	-11.8566
▁Dragon	-11.8566
▁Lime	-11.8566
▁Resources	-11.8567
▁predator	-11.8568
▁CTA	-11.857
▁west	-11.8576
▁nap	-11.8577
digest	-11.8581
▁delved	-11.8582
▁median	-11.8582
culture	-11.8585
▁dollars	-11.8587
wise	-11.8591
▁Software	-11.8593
▁Reducing	-11.8593
▁fauna	-11.8593
▁folklore	-11.8593
▁introspective	-11.8593
▁pronunciation	-11.8593
▁ignite	-11.8593
▁charities	-11.8594
▁western	-11.8594
▁Portland	-11.8595
▁immigrants	-11.8596
▁suspended	-11.8596
toxic	-11.8598
gress	-11.86
▁sage	-11.8601
▁refined	-11.8601
▁overly	-11.8601
oul	-11.8602
▁streamlined	-11.8604
▁Direct	-11.8605
▁magazines	-11.8605
TI	-11.8606
59	-11.8607
▁polish	-11.8609
▁slower	-11.8611
▁advocates	-11.8617
▁recursive	-11.8618
Matters	-11.8618
▁Eating	-11.8621
▁reasoning	-11.8623
AV	-11.8624
▁Bangkok	-11.8625
▁Dynasty	-11.8625
▁Rajesh	-11.8625
▁dollop	-11.8625
▁defining	-11.8625
▁ornate	-11.8626
79	-11.8626
▁promises	-11.8627
▁segmentation	-11.863
MC	-11.8635
▁composer	-11.8635
▁Offering	-11.8635
▁insist	-11.864
▁Pot	-11.864
▁stickers	-11.8641
Space	-11.8642
ffin	-11.8646
▁Arab	-11.8649
inspiring	-11.865
Collaboration	-11.865
Genetic	-11.865
82	-11.8654
▁Edinburgh	-11.8658
urge	-11.8658
▁Annual	-11.8658
▁measurable	-11.8658
▁gloves	-11.8658
▁polymer	-11.8658
▁gloss	-11.8658
▁minister	-11.866
CL	-11.866
▁Mont	-11.8661
▁directories	-11.8661
▁plugins	-11.8664
▁expense	-11.8666
▁pulling	-11.8667
▁intentional	-11.867
▁HD	-11.8671
▁interconnected	-11.8672
▁warned	-11.8674
▁ranch	-11.8675
▁ABC	-11.8678
▁photographer	-11.8679
ona	-11.8684
child	-11.8684
profile	-11.8684
▁contained	-11.8684
▁bonus	-11.8686
▁pedestrian	-11.869
Chemistry	-11.869
▁Massachusetts	-11.869
▁Stretch	-11.869
▁pregnancy	-11.869
▁trunk	-11.869
▁humble	-11.8691
▁pacing	-11.8691
▁CRM	-11.8693
▁Recently	-11.8694
▁historian	-11.8699
▁scraps	-11.87
36	-11.87
▁controller	-11.8701
▁strand	-11.8709
▁drying	-11.8712
mination	-11.8719
▁textured	-11.8721
▁ValueError	-11.8723
▁utility	-11.8723
▁Denver	-11.8723
▁sourcing	-11.8724
▁awaken	-11.8724
bie	-11.8724
▁rejection	-11.8726
▁Link	-11.8726
▁freshwater	-11.8731
▁Grow	-11.8732
▁Tang	-11.8744
▁practitioners	-11.8748
School	-11.8749
filter	-11.8749
▁Circ	-11.8751
▁overwhelmingly	-11.8752
▁banking	-11.8753
▁forgive	-11.8755
▁influencing	-11.8755
▁nostalgia	-11.8755
▁pharmaceutical	-11.8755
▁poignant	-11.8755
▁proficiency	-11.8755
▁sorcerer	-11.8755
▁surgical	-11.8755
▁unravel	-11.8755
Journey	-11.8755
▁AP	-11.8755
▁voting	-11.8755
▁Very	-11.8756
▁smartwatch	-11.8756
▁wrist	-11.8764
▁throwing	-11.877
▁Burn	-11.8773
▁stillness	-11.8777
▁highway	-11.8782
▁HTTP	-11.8784
▁survived	-11.8785
▁mentioning	-11.8787
▁Hummus	-11.8788
▁celebrities	-11.8788
▁maritime	-11.8788
▁turmoil	-11.8788
ello	-11.8788
▁ultra	-11.8788
▁mutations	-11.8789
▁setback	-11.8791
aste	-11.8791
▁ya	-11.8792
▁peaks	-11.8794
▁cheaper	-11.8795
▁Mona	-11.8798
▁interacting	-11.8803
lec	-11.8804
▁Yet	-11.8805
▁tub	-11.8805
▁headset	-11.8805
gie	-11.8808
▁flavored	-11.8811
stein	-11.8814
▁diagnose	-11.8815
▁Celsius	-11.8821
▁Gradually	-11.8821
▁Oregon	-11.8821
▁ambitious	-11.8821
▁probability	-11.8821
▁bronze	-11.8821
▁airline	-11.8821
▁lakes	-11.8821
▁bucket	-11.8821
▁Poem	-11.8823
▁Potter	-11.8824
▁counselor	-11.8824
▁sponsored	-11.8829
▁Rep	-11.883
▁gases	-11.8831
09	-11.8836
▁anticipated	-11.884
▁dresses	-11.8842
▁Spec	-11.8844
▁pray	-11.8847
rine	-11.8847
▁stranger	-11.8849
about	-11.8853
▁employer	-11.8854
▁Istanbul	-11.8854
▁Moroccan	-11.8854
▁Supreme	-11.8854
▁aerospace	-11.8854
▁craftsmanship	-11.8854
▁explosive	-11.8854
▁franchise	-11.8854
▁nitrogen	-11.8854
▁acclaim	-11.8854
▁rinsed	-11.8855
serif	-11.8855
▁computational	-11.8856
▁Steam	-11.8857
▁Palm	-11.8858
▁assure	-11.8859
cture	-11.8864
▁creamier	-11.8865
▁pocket	-11.8866
29	-11.8867
▁33	-11.8872
now	-11.8875
▁somewhat	-11.8876
protein	-11.8882
▁feasibility	-11.8887
▁squirrel	-11.8887
▁increment	-11.8887
▁departure	-11.8887
▁Morgan	-11.8888
▁functionalities	-11.8888
▁butternut	-11.8889
▁VPN	-11.8889
How	-11.889
En	-11.8891
▁Evan	-11.8892
▁spotted	-11.8895
▁revisit	-11.8895
▁65	-11.8896
una	-11.8901
▁dependent	-11.8902
bou	-11.8913
ipped	-11.8916
▁blankets	-11.8916
dairy	-11.8916
▁debates	-11.8916
impact	-11.8916
Wellness	-11.8918
▁arguing	-11.892
▁conferencing	-11.892
▁glacier	-11.892
▁Finance	-11.892
▁Jacob	-11.892
▁diversify	-11.892
▁stanza	-11.892
▁migrate	-11.892
intensive	-11.892
▁sensing	-11.892
▁Labour	-11.8921
quart	-11.8922
▁translated	-11.8929
▁scrambled	-11.893
▁intention	-11.8931
▁armed	-11.8933
▁passenger	-11.8934
▁plead	-11.8934
under	-11.8934
▁Def	-11.8938
▁Testing	-11.8939
edu	-11.894
pool	-11.8941
beat	-11.8944
▁vice	-11.8946
▁briefly	-11.8949
John	-11.895
▁hormones	-11.8952
wash	-11.8952
War	-11.8953
▁vocals	-11.8953
Dynamic	-11.8954
▁Corporation	-11.8954
▁Oxford	-11.8954
▁convicted	-11.8954
▁extraordinary	-11.8954
▁penalty	-11.8954
▁prevalent	-11.8954
▁slogan	-11.8954
▁conspiracy	-11.8954
▁sustainably	-11.8954
▁Psychology	-11.8954
vation	-11.8956
▁caption	-11.897
96	-11.8975
▁pill	-11.8976
▁Rad	-11.8976
123	-11.8977
▁chant	-11.8978
▁collector	-11.8981
▁Seed	-11.8982
elo	-11.8984
complete	-11.8985
▁Essential	-11.8987
▁Houston	-11.8987
▁compliance	-11.8987
▁pesticide	-11.8987
▁fifth	-11.8987
▁invisible	-11.8987
▁Ob	-11.8988
TION	-11.8989
▁certifications	-11.8989
▁GCD	-11.899
▁disputes	-11.8994
▁authorized	-11.8994
abi	-11.8996
▁scattered	-11.8999
filled	-11.8999
▁surfing	-11.9
▁ample	-11.9001
▁Aria	-11.9001
▁ceramic	-11.9002
▁Baked	-11.9006
▁grandfather	-11.9006
▁Friends	-11.9008
▁Lion	-11.9009
31	-11.901
▁Former	-11.9014
]`	-11.9021
▁critique	-11.9021
pal	-11.9021
▁Pinterest	-11.9022
▁ST	-11.9023
▁mitigation	-11.9024
▁disability	-11.9025
ifies	-11.9028
▁binding	-11.9032
▁Fast	-11.9034
▁vessel	-11.9036
▁kayaking	-11.9039
▁fortune	-11.904
Add	-11.904
lite	-11.904
▁Compare	-11.9041
▁attributed	-11.9041
▁activists	-11.9046
▁Tomato	-11.9051
sequence	-11.9052
▁Sauté	-11.9054
▁exclude	-11.9054
▁harmonies	-11.9054
▁harmonious	-11.9054
▁occupation	-11.9054
▁raisins	-11.9054
▁snowflake	-11.9054
▁swift	-11.9054
▁implant	-11.9054
▁Front	-11.9055
▁clam	-11.9057
aya	-11.906
▁reversed	-11.906
▁Chair	-11.9061
click	-11.9061
▁Mango	-11.9062
DM	-11.9062
▁canyon	-11.9062
▁Lack	-11.9066
mir	-11.9068
▁calculation	-11.9071
▁Net	-11.9082
▁Teacher	-11.9087
▁improvisation	-11.9088
▁unemployment	-11.9088
▁gravy	-11.9088
▁damaging	-11.9088
▁Oakwood	-11.9089
▁Mil	-11.9091
▁Eli	-11.9092
cott	-11.9095
researched	-11.9102
▁Kra	-11.9105
▁organizational	-11.9108
▁Response	-11.9111
▁replicate	-11.9112
▁Canva	-11.9113
▁spiders	-11.9115
▁composers	-11.9115
▁Indonesia	-11.9116
▁stained	-11.9116
▁gem	-11.9116
▁Ferr	-11.9118
▁creatively	-11.9118
▁Brooklyn	-11.9122
▁croutons	-11.9122
▁graduation	-11.9122
▁quantities	-11.9122
▁sweep	-11.9122
▁orientation	-11.9122
▁navy	-11.9122
▁Scientists	-11.9125
▁pipeline	-11.9125
▁Millbrook	-11.9129
▁Stop	-11.9129
▁Kong	-11.913
troph	-11.9137
follow	-11.9137
▁dismiss	-11.914
▁parade	-11.914
0.5	-11.9141
▁Rent	-11.9143
giving	-11.9145
▁lifted	-11.9145
▁Motor	-11.9148
▁manufacture	-11.915
▁yes	-11.9151
▁Tor	-11.9153
▁Fry	-11.9153
Biology	-11.9155
▁patron	-11.9156
lapping	-11.9156
▁meditate	-11.9156
▁claws	-11.9156
▁forgotten	-11.9156
versus	-11.9156
▁Ginger	-11.9157
83	-11.9157
▁nuances	-11.9158
▁printer	-11.9158
▁Unlike	-11.9158
limit	-11.9159
▁Hong	-11.9162
▁coordinates	-11.9166
▁Ravi	-11.9169
▁internship	-11.9174
▁overlay	-11.9174
▁noodle	-11.9175
Discovery	-11.9176
WA	-11.9179
▁Mint	-11.918
otic	-11.9181
▁admired	-11.9181
▁rag	-11.9183
▁Zi	-11.9183
Gen	-11.9183
▁descending	-11.9184
▁kinda	-11.9187
therapy	-11.9189
▁mermaid	-11.919
▁competing	-11.919
▁ambition	-11.919
Length	-11.919
▁Banana	-11.9191
▁sponsors	-11.9192
▁colony	-11.9196
▁34	-11.9196
▁Input	-11.9196
▁soaring	-11.9196
▁expressive	-11.92
▁skies	-11.9202
▁winding	-11.9204
▁intrigue	-11.9204
fluence	-11.9207
Out	-11.9208
▁Mau	-11.9211
▁publishers	-11.9211
▁disk	-11.9212
chel	-11.9218
▁Hub	-11.9222
▁Lead	-11.9224
▁leftovers	-11.9224
▁donated	-11.9224
▁Aztec	-11.9224
▁tennis	-11.9225
▁terminal	-11.9225
▁stalls	-11.9225
▁Philip	-11.9225
▁copyright	-11.9226
corn	-11.9226
▁wrapping	-11.9227
▁Alb	-11.9228
▁Guest	-11.9228
vision	-11.923
▁Bron	-11.9231
▁formatted	-11.9233
hello	-11.9241
FO	-11.9242
▁Jr	-11.9244
▁telescope	-11.9244
aire	-11.9249
▁hats	-11.925
LO	-11.9252
▁county	-11.9253
emia	-11.9256
▁Customize	-11.9257
▁contemplating	-11.9259
▁bullying	-11.9259
▁Meeting	-11.9259
▁Football	-11.9259
▁null	-11.9259
▁Assess	-11.9259
▁vow	-11.926
▁zoo	-11.9261
▁elite	-11.9262
▁diary	-11.9263
FL	-11.9263
inate	-11.9267
▁LA	-11.9269
cover	-11.9276
▁Peru	-11.9277
▁Pair	-11.9283
▁Prior	-11.9289
▁converting	-11.929
format	-11.929
▁unfamiliar	-11.9293
▁stroll	-11.9293
▁dual	-11.9294
performance	-11.9294
▁churn	-11.9294
▁Sum	-11.9299
▁threaten	-11.9304
▁disadvantages	-11.9307
▁anticipate	-11.9308
▁brightness	-11.9308
▁Ear	-11.931
▁stark	-11.9311
▁Ol	-11.9316
▁deployed	-11.932
▁earthquakes	-11.9326
science	-11.9327
sqrt	-11.9328
▁humanitarian	-11.9328
▁laundry	-11.9328
▁asleep	-11.9328
▁worksheets	-11.9328
▁Task	-11.933
▁downtime	-11.933
▁electron	-11.9332
▁[1,	-11.9332
▁Hmm	-11.9332
▁Beef	-11.9333
▁forecasting	-11.9336
▁clusters	-11.9339
Care	-11.935
▁equation	-11.935
▁Fly	-11.9354
▁skiing	-11.9355
▁noteworthy	-11.9363
▁prevalence	-11.9363
▁supervisor	-11.9363
▁Otherwise	-11.9363
▁Ever	-11.9365
▁AD	-11.9366
race	-11.937
▁Chop	-11.9378
▁flee	-11.938
json	-11.9384
▁citizen	-11.9385
reaching	-11.9385
▁Literature	-11.9388
▁clinics	-11.9388
ought	-11.9389
▁crumbs	-11.939
▁airlines	-11.939
hoe	-11.9392
Safe	-11.9393
▁Tai	-11.9395
▁fueled	-11.9395
▁Manhattan	-11.9397
▁medicinal	-11.9397
▁omega	-11.9397
▁Alaska	-11.9398
▁footsteps	-11.9398
▁buds	-11.9398
▁Update	-11.9399
boiled	-11.94
▁muted	-11.94
▁assert	-11.94
▁Retail	-11.94
▁Bear	-11.9403
▁optical	-11.9403
▁Leader	-11.9404
▁waterproof	-11.9405
▁Officer	-11.9408
▁concentrate	-11.9412
yu	-11.9417
▁illustration	-11.9421
loc	-11.9425
▁thankful	-11.9427
▁Dave	-11.9432
▁cin	-11.9432
anoramic	-11.9432
▁Advertising	-11.9432
▁Mughal	-11.9432
▁migratory	-11.9432
▁wardrobe	-11.9432
parse	-11.9433
written	-11.9434
▁scanning	-11.9434
uv	-11.9436
▁Whenever	-11.944
▁pigment	-11.944
Classroom	-11.9446
▁duplicates	-11.9446
▁Brian	-11.945
▁5)	-11.9452
▁Nutrition	-11.9455
▁router	-11.9457
▁stun	-11.9458
▁booked	-11.9465
▁Agreement	-11.9468
▁Walmart	-11.9468
▁wreath	-11.9468
▁pleasant	-11.9468
▁magnificent	-11.9468
▁detergent	-11.9468
▁martial	-11.9468
▁safeguard	-11.9468
asi	-11.9469
▁diamonds	-11.9469
▁filmmakers	-11.9469
▁About	-11.947
Su	-11.9472
▁coastline	-11.9473
dense	-11.9475
▁scared	-11.9475
UM	-11.9476
stitution	-11.9476
▁eaten	-11.9477
▁Hair	-11.9482
▁Idea	-11.9498
▁photographers	-11.9499
▁chefs	-11.9501
▁faucet	-11.9503
▁obesity	-11.9503
▁JSON	-11.9503
▁stabilize	-11.9503
▁Consult	-11.9503
▁reunion	-11.9503
Primary	-11.9503
▁squad	-11.9503
▁Partnership	-11.9504
▁bot	-11.9505
▁Quick	-11.9505
▁culturally	-11.9505
▁cheesecake	-11.9506
consuming	-11.9506
first	-11.9506
UP	-11.9511
Valid	-11.9514
master	-11.9514
▁positioning	-11.9516
▁rustle	-11.9517
hat	-11.9519
▁homework	-11.9519
▁Double	-11.9525
▁mammals	-11.9527
▁washed	-11.9528
▁120	-11.9532
▁sneak	-11.9535
▁Gatsby	-11.9538
▁Vancouver	-11.9538
▁Storage	-11.9538
▁freezing	-11.9538
▁Maggie	-11.9538
▁Yellow	-11.9538
▁dawn	-11.9539
▁peaches	-11.9542
resolution	-11.9542
(1)	-11.9544
▁buildup	-11.9546
▁Tap	-11.9547
▁Lauren	-11.9552
▁failing	-11.9553
▁associate	-11.9553
▁ceramics	-11.9558
Evolution	-11.9559
▁lungs	-11.956
asse	-11.9562
▁Sur	-11.9562
stress	-11.9564
▁labeled	-11.9564
▁cm	-11.9566
▁newspapers	-11.9566
▁prompted	-11.957
▁commute	-11.9572
▁interfere	-11.9573
~	-11.9574
▁Clinton	-11.9574
▁Depression	-11.9574
▁Florence	-11.9574
▁Military	-11.9574
▁Slack	-11.9574
▁legislation	-11.9574
▁zombie	-11.9574
▁modular	-11.9574
▁warehouse	-11.9574
▁metabolism	-11.9574
▁Chip	-11.9576
▁reefs	-11.9576
Object	-11.9579
300	-11.958
▁2003	-11.958
selling	-11.9581
▁coins	-11.9582
UR	-11.9582
▁claiming	-11.9584
▁ethic	-11.9586
▁accessory	-11.9587
UN	-11.9589
FT	-11.9593
02	-11.9597
▁shifted	-11.9605
▁tales	-11.9608
▁Administration	-11.9609
▁Embrace	-11.9609
▁Yogurt	-11.9609
▁marginalized	-11.9609
▁curtain	-11.9609
▁padding	-11.961
▁hungry	-11.961
▁overlook	-11.9614
PL	-11.9615
infused	-11.9617
▁Bright	-11.9618
▁congratulate	-11.9621
▁Milan	-11.9623
▁telescopes	-11.9624
▁scholarships	-11.9627
▁warriors	-11.9628
▁creators	-11.9629
▁Bath	-11.9632
lag	-11.9636
ancing	-11.9636
▁turtle	-11.9637
▁united	-11.9644
▁Continue	-11.9645
▁clarification	-11.9645
▁disappointment	-11.9645
▁octopus	-11.9645
▁penguin	-11.9645
▁serenity	-11.9645
▁carrier	-11.9645
▁disseminat	-11.9645
Get	-11.9645
▁angry	-11.9645
▁undergraduate	-11.9646
chomp	-11.9646
▁ecology	-11.9647
▁psycho	-11.9647
400	-11.9648
▁antique	-11.9648
hab	-11.9648
bug	-11.9649
▁2004	-11.9649
▁Rain	-11.965
intensity	-11.9651
▁Range	-11.9651
▁flourish	-11.9654
ometer	-11.9656
raz	-11.9661
▁mall	-11.9662
▁lifelong	-11.9663
agging	-11.9666
LC	-11.967
▁Mul	-11.9672
▁opponent	-11.9674
▁infographic	-11.9674
LS	-11.9674
▁emo	-11.9675
Sum	-11.9676
▁beets	-11.9677
▁Beau	-11.9679
isan	-11.9679
▁Jennifer	-11.9681
▁coalition	-11.9681
▁necessarily	-11.9681
▁yolk	-11.9681
▁Eagle	-11.9681
▁spatial	-11.9681
▁carpool	-11.9682
▁decorating	-11.9683
▁Investment	-11.9685
▁mainstream	-11.9687
loss	-11.9688
▁Swa	-11.9688
▁deity	-11.9689
▁trainer	-11.9691
▁skyline	-11.9691
▁Such	-11.9694
HO	-11.9695
DR	-11.9699
phi	-11.9699
▁professionally	-11.9702
▁donating	-11.9703
▁Ron	-11.9704
esis	-11.9704
▁trainers	-11.9707
tune	-11.9709
▁Final	-11.9709
▁seminars	-11.971
host	-11.9713
rome	-11.9713
Vision	-11.9713
▁Description	-11.9717
▁Eiffel	-11.9717
▁Sweden	-11.9717
▁avenues	-11.9717
▁constellation	-11.9717
▁lobster	-11.9717
▁maneuver	-11.9717
▁nurturing	-11.9717
▁ripple	-11.9717
▁skeptical	-11.9717
▁spiciness	-11.9717
▁thermometer	-11.9717
▁flicker	-11.9717
▁Activities	-11.9717
▁Venice	-11.9717
▁beacon	-11.9717
▁retro	-11.9722
illo	-11.9727
▁Cookies	-11.9727
▁Sport	-11.9728
▁brightly	-11.9728
▁depicting	-11.9733
psy	-11.9736
designed	-11.9738
▁concluded	-11.974
▁Introducing	-11.9742
▁Scal	-11.9742
▁monarch	-11.9745
Quest	-11.9747
web	-11.9748
▁Crystal	-11.9753
▁Mississippi	-11.9753
▁Philadelphia	-11.9753
▁daunting	-11.9753
▁futuristic	-11.9753
▁identities	-11.9753
▁prince	-11.9753
▁mythical	-11.9753
Filter	-11.9753
Line	-11.9754
▁lanes	-11.9755
uid	-11.9765
▁edited	-11.9765
▁captivate	-11.9769
▁witch	-11.977
▁Merc	-11.9776
▁catering	-11.9785
▁Leadership	-11.9787
▁Phoenix	-11.9789
▁Private	-11.9789
▁mosquito	-11.9789
▁raspberry	-11.9789
▁Stories	-11.9789
▁Again	-11.9789
▁sponsorship	-11.9789
▁undermine	-11.9791
▁birdhouse	-11.9791
▁recruitment	-11.9792
▁Thanksgiving	-11.9792
▁scroll	-11.9792
▁2:00	-11.9793
▁defender	-11.9794
▁None	-11.9794
▁limbs	-11.9794
Text	-11.9796
hang	-11.9798
button	-11.9798
▁globalization	-11.9798
Node	-11.98
▁Sri	-11.9803
▁exacerbate	-11.9803
onia	-11.9805
▁internships	-11.9806
▁Forum	-11.9807
NI	-11.9809
zar	-11.9809
tron	-11.9809
▁captions	-11.981
▁upgrades	-11.9815
▁Vin	-11.9817
▁Kir	-11.9818
▁Cape	-11.9819
EF	-11.9819
▁Success	-11.982
rose	-11.9821
rol	-11.9825
Preservation	-11.9825
▁Explanation	-11.9825
▁Vitamin	-11.9825
▁ethereal	-11.9825
▁quirky	-11.9825
▁tapestry	-11.9825
▁roam	-11.9826
▁loaf	-11.9826
▁Right	-11.9827
▁NBA	-11.9828
▁uneven	-11.9829
▁Basic	-11.9835
▁reinforcement	-11.9837
GM	-11.9839
ego	-11.9841
▁Sto	-11.9843
ension	-11.9847
84	-11.9848
06	-11.9848
▁sorry	-11.9849
▁behold	-11.985
6)	-11.9852
▁whale	-11.9859
▁Greg	-11.9859
▁Beijing	-11.9862
▁Jersey	-11.9862
▁PTSD	-11.9862
▁pencil	-11.9862
▁uncomfortable	-11.9862
▁stigma	-11.9862
▁priest	-11.9862
kha	-11.9865
▁consciousness	-11.9865
▁48	-11.9866
your	-11.987
▁predicting	-11.9872
▁defects	-11.9873
▁Blo	-11.9873
▁Kha	-11.9874
upper	-11.9878
▁Pine	-11.9885
Comp	-11.9888
▁Fred	-11.989
▁Measur	-11.9892
▁elder	-11.9893
▁incentive	-11.9895
tsu	-11.9897
iya	-11.9898
▁Margaret	-11.9898
▁Protestant	-11.9898
▁biblical	-11.9898
▁cardamom	-11.9898
▁cholesterol	-11.9898
▁divisor	-11.9898
▁enchanted	-11.9898
▁exercising	-11.9898
▁marathon	-11.9898
▁Secure	-11.9898
▁tidal	-11.9899
▁apparent	-11.9899
▁shame	-11.99
▁euro	-11.9901
▁baseball	-11.9902
▁Jay	-11.9904
▁Clo	-11.9907
▁trucks	-11.9908
▁rejected	-11.991
▁declined	-11.9919
▁teenage	-11.9929
▁linking	-11.993
▁Physics	-11.9932
▁Rebecca	-11.9935
▁marshmallow	-11.9935
▁recursion	-11.9935
▁Stream	-11.9935
[...]
